▁the 289952
▁. 280000
▁, 253096
s 228518
▁of 171104
▁in 144814
▁a 117919
▁and 115594
▁is 112336
▁to 73070
▁ 69240
▁' 68312
▁( 63316
▁) 60814
- 59699
▁The 57055
ed 55836
▁was 55551
' 48261
ing 32643
▁for 32584
▁as 30048
▁by 29850
▁It 29410
▁on 29170
e 27549
d 26342
▁that 23860
▁are 23758
▁with 22638
y 22046
▁from 22004
▁an 21241
. 20800
▁A 19380
er 18489
▁In 18429
▁or 18404
▁He 17482
t 17368
▁at 16715
▁- 16092
o 15049
▁it 14692
▁: 14257
▁be 13828
ly 13763
▁his 13687
▁has 13297
▁he 13260
es 13147
▁also 12986
▁born 12691
/ 12634
▁which 12504
a 11863
n 11536
▁were 11457
▁first 11407
th 11097
▁found 11089
▁France 10912
al 10905
i 10834
Ã 10753
▁S 10262
▁not 9660
▁one 9605
in 9183
▁region 9121
▁United 9071
▁have 8721
▁city 8633
O 8551
▁called 8201
▁department 8153
▁can 8143
▁who 8141
▁used 7713
▁but 7708
▁had 7606
on 7471
▁made 7382
▁1 7319
▁football 7295
▁States 7262
ic 7151
▁people 7112
le 7025
▁known 7000
▁other 6985
r 6964
▁its 6948
▁B 6926
de 6895
or 6871
▁de 6862
▁their 6798
en 6778
▁about 6587
k 6529
▁two 6479
us 6438
▁commune 6419
▁American 6417
▁they 6345
▁part 6327
▁This 6302
▁I 6263
▁player 6258
m 6159
st 6150
▁; 6137
▁this 6034
▁after 6008
▁E 6005
ar 5755
▁most 5738
▁2 5621
▁north 5571
▁been 5501
▁into 5413
▁C 5387
▁her 5348
▁3 5286
▁17 5284
▁They 5262
▁name 5251
▁H 5231
▁when 5223
▁many 5192
z 5186
▁18 5159
▁became 5153
▁New 5073
▁more 5042
▁F 5021
▁Re 4999
▁all 4933
ion 4908
▁U 4832
▁time 4829
an 4824
g 4764
ia 4664
▁G 4593
\ 4560
b 4548
▁only 4521
f 4499
▁O 4487
l 4468
S 4458
ation 4442
▁She 4340
▁P 4322
to 4319
ist 4273
▁between 4269
▁than 4230
▁over 4222
â 4212
▁May 4207
▁16 4201
▁15 4173
▁team 4169
ers 4084
il 4082
ra 4080
▁D 4076
▁some 4061
ton 4056
is 4046
ian 4020
man 3995
ma 3993
se 3980
▁such 3964
▁W 3936
▁years 3916
▁up 3896
▁T 3866
▁English 3836
▁4 3834
▁there 3825
▁World 3811
▁where 3808
p 3796
▁re 3775
▁former 3761
h 3756
u 3744
▁she 3722
▁M 3707
ro 3668
ur 3653
re 3649
Calais 3632
el 3622
na 3578
▁d 3567
um 3545
▁10 3536
▁state 3492
ta 3476
▁town 3475
▁September 3457
B 3441
P 3431
▁very 3428
▁August 3422
▁out 3422
▁K 3411
▁There 3402
c 3384
▁area 3368
▁new 3363
▁War 3349
x 3344
▁La 3327
▁5 3312
▁German 3309
C 3307
▁N 3301
▁12 3293
▁January 3278
▁year 3273
do 3271
▁three 3262
▁March 3242
D 3208
▁located 3176
▁October 3169
▁second 3155
▁British 3143
▁because 3143
ck 3130
▁July 3129
▁died 3110
▁played 3101
▁North 3100
▁during 3099
▁band 3094
▁14 3081
▁June 3080
▁England 3070
▁like 3068
▁April 3065
▁so 3059
▁named 3056
▁music 3055
ine 3049
▁well 2995
▁world 2985
▁December 2978
4 2970
▁On 2968
▁2007 2964
▁November 2953
▁often 2948
est 2941
▁then 2932
▁6 2917
▁South 2916
▁Other 2915
▁13 2905
▁album 2898
▁him 2885
▁do 2882
▁use 2878
am 2875
▁national 2875
▁them 2874
▁released 2870
▁series 2869
▁won 2848
co 2846
▁no 2831
M 2830
▁game 2818
ne 2811
▁St 2805
▁later 2793
▁different 2790
▁will 2771
ies 2764
▁February 2756
▁11 2755
▁London 2754
▁University 2748
▁f 2739
▁7 2738
▁Al 2738
ch 2727
▁live 2718
▁number 2718
W 2716
▁small 2713
▁20 2708
▁John 2705
) 2695
▁R 2692
▁started 2683
son 2680
ul 2668
it 2660
▁would 2657
▁Le 2655
▁At 2654
ke 2637
until 2624
as 2610
▁under 2606
ity 2602
▁same 2602
▁may 2591
▁capital 2587
me 2579
▁After 2572
id 2568
▁French 2567
tic 2565
▁As 2564
▁National 2562
▁8 2547
▁la 2529
▁County 2527
▁group 2520
▁His 2504
et 2503
▁9 2492
▁Pa 2492
▁To 2492
▁km 2482
ol 2474
▁p 2468
▁De 2464
▁An 2463
be 2450
▁season 2444
▁Germany 2443
te 2425
▁2006 2416
▁plays 2415
ga 2413
ci 2410
▁district 2409
▁place 2407
ry 2406
▁family 2392
▁before 2390
▁being 2388
ant 2356
▁now 2355
ba 2351
▁work 2350
▁famous 2344
age 2340
ent 2338
▁Me 2331
land 2323
▁south 2322
▁water 2317
A 2314
pp 2312
▁usually 2310
▁main 2309
L 2301
▁Ba 2301
▁around 2292
▁II 2288
▁system 2282
▁through 2281
, 2277
2 2276
▁population 2271
▁King 2260
la 2254
ie 2253
▁movie 2250
mo 2249
▁both 2247
▁province 2245
▁York 2244
` 2243
▁For 2240
▁century 2238
▁e 2223
▁V 2212
▁including 2212
F 2209
▁Japanese 2204
▁make 2202
ce 2198
▁said 2186
ism 2183
▁four 2174
▁Ar 2173
▁west 2169
▁2008 2168
▁Po 2166
▁long 2165
ary 2163
ate 2157
N 2151
▁language 2145
▁large 2145
19 2143
▁n 2141
▁government 2139
▁City 2125
▁2005 2124
▁River 2123
da 2122
▁near 2105
▁northwest 2102
▁L 2099
▁Mar 2095
▁Pas 2093
▁important 2091
▁League 2074
at 2073
ter 2044
ley 2043
ment 2042
▁million 2042
der 2041
ir 2041
▁J 2041
li 2040
▁largest 2039
▁When 2038
▁since 2035
E 2034
▁any 2029
ive 2022
sh 2020
mon 2011
▁19 2011
▁book 2011
ca 2001
che 2001
v 2000
▁un 2000
▁b 1993
▁Co 1992
▁Roman 1991
ous 1985
▁30 1983
▁written 1981
T 1972
▁show 1953
▁last 1948
▁these 1946
▁25 1945
▁municipality 1942
é 1940
▁% 1938
▁each 1938
ference 1936
▁did 1935
▁America 1934
▁One 1934
▁early 1933
▁Li 1923
▁several 1921
ph 1918
▁Vi 1915
▁form 1914
20 1913
▁Pro 1909
▁popular 1909
▁Nord 1908
G 1896
▁come 1896
▁Some 1894
00 1892
▁television 1889
un 1883
▁best 1882
▁country 1881
Pa 1880
▁c 1876
▁change 1876
▁back 1867
ni 1861
▁against 1859
▁short 1852
ve 1851
ty 1850
▁built 1842
▁rock 1840
▁home 1839
▁Na 1836
able 1835
den 1835
▁land 1827
▁No 1825
▁while 1822
H 1818
ri 1818
▁created 1815
▁Australia 1812
ge 1811
▁West 1811
▁President 1808
▁species 1808
lu 1803
▁began 1800
given 1795
▁Ca 1792
di 1791
▁Her 1791
▁based 1791
▁Be 1784
no 1779
▁2000 1774
▁Kingdom 1772
▁help 1769
▁end 1759
▁film 1759
▁word 1755
▁Pakistan 1754
▁song 1752
▁These 1748
ium 1744
mb 1742
im 1739
▁East 1733
nd 1732
▁All 1731
ka 1728
go 1725
w 1721
▁Con 1715
▁example 1713
op 1712
per 1704
▁24 1699
R 1698
▁means 1693
ha 1690
▁life 1690
▁Bo 1685
▁Saint 1685
▁& 1675
▁go 1674
▁Car 1672
▁Mo 1672
ig 1669
▁death 1667
ber 1663
qui 1660
ina 1659
▁page 1657
ak 1655
▁sometimes 1654
up 1643
ti 1641
▁Di 1631
▁2004 1629
▁Lo 1629
ster 1628
les 1625
▁Ro 1620
▁person 1619
ut 1612
▁Ta 1612
ah 1611
▁Aisne 1611
▁Sa 1610
ac 1606
▁m 1605
▁high 1603
▁singer 1592
lin 1590
▁23 1585
▁co 1584
▁us 1582
asse 1580
▁Man 1580
▁X 1578
▁common 1574
V 1569
▁play 1567
lo 1562
▁Calva 1561
▁El 1559
1 1558
▁east 1558
▁major 1557
ical 1552
▁mov 1552
▁school 1551
5 1549
ard 1549
▁could 1549
min 1547
▁San 1546
ki 1541
ten 1541
3 1534
▁left 1534
▁21 1533
▁22 1533
Picardie 1532
▁website 1532
▁include 1521
▁term 1520
▁member 1519
ub 1516
▁Per 1516
▁son 1516
▁Japan 1514
▁countries 1513
▁Se 1512
▁day 1503
owever 1500
▁still 1500
▁old 1499
ad 1497
chi 1494
▁came 1492
▁2001 1487
▁video 1486
du 1485
▁di 1483
▁much 1483
os 1482
▁Gu 1481
▁Italian 1479
▁Ho 1477
▁Union 1477
▁father 1477
▁g 1476
▁Or 1469
▁Europe 1464
ner 1461
▁2009 1457
ron 1453
▁single 1453
▁Switzerland 1451
▁see 1448
▁members 1446
▁James 1441
▁Republic 1440
▁went 1437
Normandie 1435
▁Su 1435
tain 1433
mi 1432
▁if 1432
ence 1421
U 1416
ho 1413
▁become 1413
▁period 1412
▁Go 1410
▁set 1410
▁own 1409
▁line 1407
▁took 1406
▁India 1405
mp 1402
▁third 1402
▁California 1399
▁color 1398
om 1397
▁another 1395
ish 1394
▁Dur 1394
▁published 1393
▁county 1390
▁power 1390
▁26 1389
▁William 1383
▁2003 1381
▁professional 1378
▁games 1375
▁Ne 1373
▁0 1372
▁history 1370
▁wrote 1370
▁27 1365
the 1363
▁Spanish 1363
▁George 1362
▁Ni 1362
▁times 1360
,000 1358
▁war 1358
▁Z 1355
hi 1353
ling 1350
▁pro 1347
▁what 1347
▁= 1343
▁formed 1342
▁Ka 1341
j 1340
▁body 1339
berg 1336
au 1335
▁Most 1335
▁held 1329
wa 1328
gar 1325
▁actor 1323
▁company 1322
▁island 1321
▁1999 1319
ius 1317
▁car 1312
Å 1306
tor 1305
▁children 1305
▁Great 1304
ger 1302
ang 1300
▁k 1300
▁order 1299
▁Greek 1298
▁Ri 1298
▁founded 1297
▁International 1296
▁allow 1296
▁State 1293
▁So 1291
▁History 1285
ran 1284
▁storm 1278
▁28 1275
▁canton 1271
Â 1270
▁European 1270
▁southwest 1270
▁man 1268
▁2002 1267
8 1266
▁center 1266
▁way 1266
que 1265
ow 1264
▁together 1264
▁Lu 1262
▁parts 1262
ham 1260
vi 1259
▁station 1259
va 1254
bi 1251
con 1251
▁southern 1250
▁head 1248
men 1235
io 1234
▁Sch 1234
▁Loire 1232
one 1231
▁club 1231
▁type 1231
▁Can 1230
▁Ko 1227
▁Te 1227
▁good 1227
▁con 1226
▁modern 1226
▁Christian 1222
ance 1221
▁District 1220
▁off 1215
▁five 1213
▁29 1211
▁public 1211
ov 1208
gen 1206
▁just 1206
▁want 1206
shire 1205
ler 1204
za 1202
ell 1200
▁1980 1199
▁Jo 1199
▁per 1199
gg 1196
he 1196
▁Du 1196
▁Ma 1194
I 1192
ier 1192
▁Canada 1192
▁Paul 1192
em 1191
har 1190
ville 1190
▁even 1189
ung 1186
▁Royal 1186
▁along 1183
ated 1181
▁Italy 1177
tro 1176
▁Ga 1176
▁age 1176
▁sub 1175
pe 1174
ven 1173
▁China 1172
▁does 1172
mer 1171
▁computer 1171
▁Charles 1169
▁character 1168
▁tropical 1167
▁Many 1166
▁r 1165
▁similar 1164
uc 1161
▁Council 1161
▁Grand 1160
▁w 1155
▁Park 1154
▁next 1153
▁list 1152
▁Pe 1151
▁career 1151
▁Dr 1146
bo 1144
▁Do 1142
▁again 1133
▁Girond 1132
▁match 1128
ko 1127
▁top 1127
▁current 1126
ana 1125
▁few 1124
▁# 1122
▁Championship 1122
▁air 1122
▁Red 1121
▁married 1119
▁sea 1118
▁thought 1116
ino 1115
▁Church 1115
▁Sea 1114
▁t 1113
▁light 1112
▁living 1112
▁dis 1108
▁contain 1107
ice 1103
way 1102
ica 1101
▁title 1101
▁version 1100
ology 1099
$ 1098
▁Bra 1096
▁point 1096
▁Pi 1095
▁We 1094
ll 1091
▁control 1091
mar 1090
▁Ex 1087
▁river 1084
ach 1083
▁School 1080
▁border 1078
▁making 1078
▁non 1078
▁Earth 1076
▁down 1076
▁metal 1076
han 1075
und 1075
▁Cha 1074
▁Ge 1074
▁return 1074
▁hurricane 1073
ness 1072
▁Ju 1071
▁days 1071
▁Scotland 1069
▁get 1068
▁put 1068
▁Party 1065
▁works 1063
▁ch 1061
ot 1060
▁By 1056
▁consider 1056
▁1990 1055
▁Ver 1055
▁every 1055
ja 1054
▁First 1054
▁Robert 1053
▁local 1049
ite 1048
▁Island 1047
▁worked 1047
▁Henry 1046
▁books 1046
▁side 1046
▁Australian 1045
▁Ra 1044
by 1041
▁original 1040
▁1970 1039
▁2010 1039
X 1038
▁US 1036
▁official 1036
tri 1035
▁novel 1034
▁Ha 1033
▁produced 1029
▁House 1028
▁food 1027
0,000 1026
▁College 1025
line 1022
▁sp 1022
▁Au 1020
▁final 1020
▁record 1020
▁Minister 1018
sta 1017
▁mother 1017
▁o 1016
tra 1015
▁late 1015
▁Africa 1012
▁Empire 1012
ill 1010
▁Chi 1008
▁Black 1007
▁Hu 1007
gu 1006
▁Bi 1005
▁seen 1005
▁village 1004
▁states 1003
▁Queen 1002
▁Florida 1000
▁joined 998
▁chemical 997
▁how 997
▁pre 996
lan 995
▁me 995
▁Brazilian 994
▁Che 994
▁Wi 990
▁free 988
▁right 988
▁Ja 985
▁areas 985
▁award 985
▁gave 985
▁within 985
ong 984
▁Ireland 984
▁those 983
▁following 982
▁human 981
ct 978
ions 977
▁Mal 977
▁Hall 976
▁Ph 975
▁ca 975
▁meaning 975
▁reach 975
▁host 974
Î 973
▁Music 972
▁Fi 971
▁lot 971
▁law 970
ny 967
7 966
tre 966
▁Award 966
▁li 966
▁wife 966
tin 963
▁should 962
ya 958
▁Canadian 958
▁Mon 958
-19 954
cc 954
ction 953
ide 953
▁process 953
▁take 953
▁daughter 951
▁present 951
▁includes 949
ec 948
ure 948
▁100 948
▁six 948
▁special 948
currently 947
▁WWE 947
K 946
sen 946
Ä 946
▁te 946
ker 944
pa 944
▁My 944
▁got 944
▁without 944
we 942
▁composer 942
ux 941
ft 937
cy 936
▁But 934
▁ice 932
less 931
▁Paris 931
lip 930
ors 929
▁Football 928
▁Tri 928
▁31 925
po 923
▁God 923
▁caus 923
gan 922
cul 921
▁Central 921
▁less 921
▁En 918
▁1998 917
▁lead 917
▁miles 917
ator 916
▁close 916
▁David 915
▁Mac 915
▁al 915
val 912
▁writer 912
ru 910
▁Louis 910
▁1997 909
▁kind 908
▁Western 906
▁role 906
6 905
▁Super 905
▁sold 905
▁story 905
▁Cup 904
▁study 903
ement 902
wi 900
▁Sal 900
▁strong 900
▁bar 899
▁III 896
▁political 894
▁Air 892
▁northern 891
oc 889
▁Indian 888
time 887
▁Cor 887
des 886
ap 884
▁languages 883
▁moon 883
▁killed 882
▁Emperor 881
▁big 881
can 879
: 877
ial 877
▁Spain 876
▁i 876
▁taken 876
▁types 876
don 875
tan 875
▁event 875
▁leader 875
▁coast 874
ward 873
▁1996 873
▁international 873
▁Atlantic 872
▁wind 872
▁red 871
▁rule 871
▁1994 870
▁need 870
▁Asia 868
Ð 867
let 864
end 863
▁1960 863
▁Ben 863
▁Richard 863
▁Day 862
lic 861
ver 861
▁! 861
sk 860
▁Lake 860
▁Sar 859
▁general 859
▁playing 859
▁Michael 858
▁Los 857
▁included 857
▁natural 857
ney 856
▁Bal 856
▁Even 856
▁du 856
▁led 856
▁Ab 854
▁you 854
ji 853
▁mostly 853
▁white 853
ari 852
▁BC 849
▁Star 847
ble 845
▁must 843
vo 842
▁ge 841
▁race 841
ip 839
▁People 839
▁served 839
tion 838
▁en 838
▁plant 838
burg 837
▁If 837
▁Rock 837
▁General 836
▁black 836
▁players 836
▁size 836
▁ten 836
ford 835
ized 834
▁Russian 834
▁Hi 833
▁king 832
▁Pre 829
▁men 829
▁mo 829
▁From 828
ld 827
ick 826
▁Bur 826
▁Scottish 826
▁plants 826
▁uses 826
▁real 825
▁Chinese 824
▁Da 823
▁total 823
ps 822
▁Iowa 821
▁central 821
▁military 821
▁attack 820
▁50 818
▁ma 818
ther 816
▁Peter 815
▁though 815
ography 814
res 814
▁Catholic 814
gi 812
nes 812
▁UK 812
▁art 812
▁makes 812
ai 811
ud 811
ea 810
▁actress 810
▁Latin 809
▁move 809
ile 808
qu 808
sch 808
▁Berlin 808
▁po 808
▁songs 808
▁1995 807
▁Mi 807
▁away 807
▁better 807
▁Bay 804
▁building 804
car 803
ches 803
▁Va 803
▁hit 803
▁movement 803
ev 802
ix 801
▁1979 801
well 799
▁Wikipedia 799
▁science 799
▁Cal 798
ning 796
cle 795
ets 794
▁Club 794
▁words 794
▁great 793
▁opened 793
ign 791
▁developed 791
▁teams 790
▁things 790
ise 789
aw 788
á 788
▁1981 788
▁shows 786
▁1992 785
▁open 785
0 784
ug 783
▁Fa 783
com 780
fa 780
▁half 780
▁support 780
hu 779
Ø 779
▁groups 779
▁th 778
▁we 778
▁author 777
▁Ven 776
act 775
▁cities 775
▁Dutch 774
▁vi 774
ab 773
all 772
▁engine 771
▁guitar 771
rs 770
side 770
▁Green 769
▁animals 768
▁unit 768
▁hard 767
▁j 767
▁space 767
▁symbol 767
▁Sir 766
▁Am 763
▁Prince 763
vent 762
▁orbit 762
▁women 762
▁far 761
▁names 761
▁sh 761
mph 760
▁Disney 760
▁Gi 760
▁Min 760
▁due 760
10 759
▁Ocean 759
▁Virginia 759
▁across 759
▁1984 758
▁Im 758
▁network 757
▁Sun 756
▁today 756
▁run 755
▁Col 754
▁Northern 754
▁post 754
Alpes 753
▁Duke 753
18 752
▁Sp 751
▁almost 751
▁either 751
▁Edward 749
▁1993 748
▁Mor 748
▁You 748
▁energy 747
row 746
▁1986 746
▁Province 746
ecause 745
▁appear 744
▁look 744
▁Battle 743
▁information 743
▁Britain 742
▁university 742
9 741
▁recorded 741
▁party 740
▁politician 738
▁others 736
ey 735
shi 735
▁key 735
▁young 734
and 733
ff 733
ik 733
ou 733
▁Thomas 733
▁opera 733
field 732
▁cell 732
50 731
▁le 731
▁Stra 729
▁design 729
▁ex 729
ric 727
pher 726
▁Wa 725
▁program 725
ple 724
▁championship 724
▁highest 724
▁Hurricane 722
▁Life 722
▁blue 722
ade 721
▁Bre 721
▁start 721
▁Prime 720
▁house 720
▁stage 720
▁surface 720
▁tell 720
J 719
ena 719
▁1974 719
▁1982 719
▁NHL 719
▁full 716
▁service 715
▁Wales 714
▁Han 713
▁Th 713
▁commonly 713
▁sister 713
▁style 713
▁Line 712
▁continu 712
▁talk 712
▁replac 711
IS 710
ire 710
zo 710
▁Belgian 709
▁1975 708
▁com 708
▁ask 706
▁fire 705
▁pass 705
è 704
▁money 704
▁Y 703
▁Za 703
▁writing 701
ists 700
▁And 700
▁lost 700
▁pop 700
▁Soviet 699
▁director 698
▁result 697
▁High 696
▁Since 696
▁originally 696
ett 695
▁Ti 694
▁1973 693
▁ne 693
▁biggest 692
▁Bar 691
▁brother 691
sky 690
▁release 690
▁church 689
▁working 689
q 688
▁White 688
▁low 688
art 687
▁1989 687
▁1991 687
▁received 687
ful 686
▁Port 686
▁once 686
▁radio 686
▁range 686
▁Tu 685
▁although 685
mm 684
tter 684
▁text 684
▁western 684
▁Sol 683
pi 682
▁Mexico 682
▁discovered 681
▁having 681
▁president 681
▁1985 680
▁lake 680
ze 678
▁pe 677
▁appeared 676
▁hand 676
▁shown 675
▁met 674
▁never 673
▁Act 672
▁Boy 672
▁seven 672
▁Cla 671
▁Martin 671
▁numbers 671
▁1976 670
fi 669
▁1983 669
▁studio 669
kin 668
tu 668
war 668
van 667
cha 666
▁Mary 666
▁systems 666
itz 665
▁1977 665
▁instead 665
enne 664
▁among 664
ille 663
use 663
▁conductor 663
sur 662
▁Games 662
▁Ke 662
▁Tom 662
▁related 662
▁sent 662
▁Book 661
▁Hockey 661
▁Parliament 660
▁level 660
▁link 659
▁elected 658
▁especial 658
▁performed 658
port 657
▁outside 657
ola 656
▁1987 656
▁Washington 655
phy 654
zi 653
▁Army 653
tz 652
▁Dan 652
▁above 652
▁cl 652
▁nu 652
▁temperature 652
▁Game 651
vin 650
▁star 650
▁Rh 649
▁Texas 649
▁bo 648
▁independent 648
▁mainly 648
▁software 648
30 647
▁damage 647
▁signed 647
▁Har 646
ally 645
▁mean 645
▁With 644
▁+ 643
▁code 643
▁Don 642
▁win 642
unt 641
▁Gra 640
▁done 640
▁eastern 640
▁smaller 640
▁theory 640
▁Ch 639
▁Yu 638
▁oldest 638
rd 636
sia 636
▁1969 636
▁forces 636
jo 635
ting 635
▁1972 635
▁Pacific 635
▁influence 635
ves 634
▁40 634
▁development 634
▁Lord 633
▁ancient 633
▁enter 633
ever 632
tom 632
▁think 632
▁Over 631
▁Russia 631
▁exist 631
ians 630
▁Formula 630
▁join 630
▁says 630
ect 629
over 629
top 629
ular 629
▁1988 629
ku 628
wood 628
▁railway 628
out 627
ship 627
▁Old 627
▁ground 627
itch 626
▁Prize 626
▁TV 626
▁Their 626
▁announc 626
▁mu 626
lia 625
▁1967 625
▁Pla 624
▁Tra 624
ex 623
illa 623
▁Best 623
▁While 623
▁night 623
▁seat 623
▁Year 622
▁able 622
60 621
old 621
▁Ze 621
▁himself 621
▁hockey 621
▁sa 621
▁Angeles 620
▁Wrestling 620
▁gas 620
ities 619
tur 619
▁Victoria 619
▁divided 619
▁force 619
▁round 619
▁Is 618
▁length 618
▁1978 617
▁average 616
▁cells 616
▁concert 616
à 615
▁islands 615
▁site 615
▁Chicago 614
▁consist 613
▁position 613
▁Phil 612
ash 611
▁studi 611
cher 610
pha 610
▁find 610
▁too 610
▁base 609
▁college 608
▁fourth 608
▁port 608
low 607
nt 607
xi 607
▁Academy 607
▁past 607
▁anti 606
▁child 605
▁performance 605
04 604
her 604
▁becomes 604
▁distance 604
▁least 603
sel 602
▁Islands 602
mate 601
ura 601
▁articles 601
▁ever 601
▁sound 601
▁1945 600
▁square 600
▁Eastern 599
▁sc 599
▁pi 598
day 597
ef 597
tt 597
▁1971 597
▁Rome 596
▁Fer 595
01 594
▁Pol 594
▁added 594
▁districts 594
▁orchestra 594
▁takes 594
▁Tim 593
▁business 592
▁planet 592
40 591
ez 591
▁Center 591
▁data 591
▁Romania 590
▁Ve 590
▁date 590
off 589
ris 589
▁Men 589
▁Tre 589
uff 588
▁BBC 588
▁events 588
▁little 588
.2 587
▁Cre 587
▁Nintendo 587
▁genus 587
ture 586
▁Un 586
tes 585
▁however 585
ean 584
▁bi 584
if 583
bal 582
▁culture 582
▁write 582
▁asteroid 581
▁places 581
▁stadium 581
cent 580
▁Association 580
▁ring 580
lthough 578
ries 578
▁Nor 578
▁Vo 578
ization 577
▁Middle 577
▁Muslim 577
▁separate 577
▁1950 576
▁According 576
▁Fla 576
▁Hy 576
▁front 576
▁league 576
▁keep 575
▁episode 574
▁office 574
ath 573
llar 573
rus 573
▁Street 573
▁create 573
▁division 573
▁field 573
▁itself 573
06 572
▁Sc 572
▁army 571
rt 570
▁Qu 570
▁ball 570
▁park 570
▁Gal 569
▁referr 569
known 568
▁Mc 568
▁Tropical 568
▁Two 568
▁court 568
▁social 568
▁vote 568
ren 567
ô 567
▁Nobel 567
▁na 567
ender 566
▁bank 566
▁fish 566
▁various 566
▁Shi 565
▁blood 565
▁ended 565
▁feature 565
lie 564
ring 564
view 564
ette 563
▁Company 563
▁mountain 563
ep 562
fe 562
▁Char 562
▁described 562
▁super 562
ini 561
led 561
yl 561
Ù 561
▁Division 561
▁Netherlands 561
▁disease 561
▁voice 561
idae 560
▁Sin 560
▁job 560
▁officially 560
▁von 560
70 559
oo 559
▁Windows 559
▁amount 559
oth 558
▁Fe 558
▁Gar 558
▁Secretary 558
▁brand 558
ks 557
▁Cho 557
▁characters 557
▁fl 557
▁African 556
▁Entertainment 556
▁Southern 556
▁feet 556
ating 555
our 555
qua 555
ü 555
▁Art 555
▁Pan 555
▁project 555
ek 554
itt 554
mann 554
▁Before 554
▁Fri 554
▁interest 553
▁Irish 552
▁Later 551
▁Ya 551
▁generally 551
▁wide 551
05 550
▁certain 550
▁class 550
▁nation 550
ants 548
ox 548
▁Ki 548
▁USA 548
▁Vol 548
▁god 548
ified 547
▁Blue 547
▁buildings 547
▁sports 547
ans 546
▁Austria 546
▁Ur 546
▁changes 546
▁students 546
▁successful 546
omy 545
▁Par 545
▁inside 545
gue 544
tal 544
▁Major 544
▁movies 544
rie 543
▁give 543
▁gold 543
▁green 543
▁rest 543
▁producer 542
▁va 542
▁Bro 541
▁Ter 541
▁organization 541
▁read 541
ize 539
▁bad 539
▁possible 539
▁tribe 539
▁Jupiter 538
▁Land 538
▁eight 538
▁l 538
▁love 538
17 537
ib 537
▁Brazil 537
▁battle 537
▁months 537
▁break 536
▁oil 536
▁say 535
abad 534
▁block 534
▁units 534
▁Sam 533
▁success 533
vis 532
▁Young 532
▁idea 532
▁mid 532
▁Free 531
▁Second 531
▁driver 531
07 530
▁Mario 530
ella 529
▁poet 529
ay 528
▁Christ 528
▁musician 528
▁points 528
▁pressure 528
15 527
▁begin 527
▁established 527
90 526
pur 526
▁Illinois 526
▁Ser 525
▁always 525
▁para 525
lor 524
▁Er 524
▁woman 524
ological 523
▁Count 523
▁source 523
gre 522
ria 522
vel 522
▁System 522
▁albums 522
▁female 522
br 521
▁Cat 521
▁Pope 521
▁services 521
.5 520
▁Dar 520
▁mass 520
▁research 520
▁wave 520
stone 519
▁Death 519
▁cent 519
▁forms 519
▁tree 519
rich 518
▁1968 518
ue 517
▁Mer 517
ese 516
▁Records 516
▁Tour 516
▁lives 515
▁sign 515
▁describe 514
▁followed 514
▁track 514
▁market 513
▁material 513
▁Cy 512
▁Joseph 512
▁cause 512
▁compound 512
▁v 512
cu 511
ew 511
▁1964 511
▁Dom 511
▁print 511
03 510
uck 510
▁Road 510
▁larger 510
▁soon 510
ax 509
cycl 508
ual 508
▁Je 508
▁Oklahoma 508
▁eat 508
▁protect 508
enburg 507
▁Val 507
▁heavy 507
▁starr 507
hal 506
▁Harry 506
▁Pu 506
▁available 506
▁introduced 506
▁minor 506
▁act 505
▁police 505
▁provide 505
▁ta 505
▁Kar 504
08 503
bon 503
▁Orchestra 503
▁Tro 503
▁grow 503
▁musical 503
uk 502
▁1963 502
▁civil 502
▁model 502
▁picture 502
▁probabl 502
▁Nu 501
bar 500
mu 500
▁bit 500
ept 499
▁60 499
▁Carolina 499
▁acid 499
▁pen 499
80 498
bot 498
ologist 498
▁Inter 498
▁try 498
crypt 497
▁heat 497
▁lower 497
▁Government 496
▁Governor 496
▁beginning 496
▁below 496
▁retired 496
▁designed 495
▁private 495
▁towns 495
12 494
▁Jesus 494
▁simply 494
og 493
▁Under 493
▁label 493
▁longer 493
ani 492
▁1930 492
▁Hill 492
▁That 492
▁Today 492
▁Valley 492
▁animal 492
ane 491
gra 491
hen 491
ible 491
▁Early 491
▁1961 490
▁Champion 490
... 489
sis 489
▁Lee 489
▁dog 489
ken 488
▁Zealand 488
▁directed 488
▁magazine 488
16 487
pos 487
▁Railway 487
▁features 487
▁se 487
▁stop 487
▁starting 486
▁traditional 486
ros 485
▁Big 485
▁Pri 485
▁camp 485
▁pay 485
▁Poland 484
ative 483
bert 483
▁1947 483
▁Awards 483
▁call 483
▁meet 483
▁week 483
iv 482
tus 482
▁Court 482
▁Si 482
▁decided 482
▁discover 482
▁produce 482
▁Lady 481
▁Q 481
▁Storm 481
▁birth 481
▁letter 481
▁object 481
yo 480
▁Class 480
▁Mel 480
▁community 480
▁flag 480
▁ship 480
▁Mark 479
▁edition 479
▁ho 479
▁middle 479
▁tour 479
97 478
ack 478
af 478
mal 478
une 478
▁cyclone 478
amp 477
▁Bel 477
.0 476
bre 476
▁Mad 476
▁artist 476
▁rain 476
▁Nazi 475
09 474
tag 474
▁Maria 474
fri 473
vers 473
▁Ana 473
▁Georgia 473
▁Web 473
▁recording 473
▁1940 472
▁Armenian 472
▁Ber 472
▁accept 472
▁box 472
▁scale 472
25 471
bu 471
ee 471
hy 471
▁Fire 471
▁Night 471
▁Tor 471
▁chart 471
▁Para 470
▁Santa 470
▁know 470
ita 469
kept 469
▁Bun 469
▁Jack 469
▁economic 469
▁goal 469
▁paper 469
▁production 469
▁stars 469
▁wrestling 469
brought 468
east 468
▁Team 468
▁trade 468
mor 467
▁Brown 467
▁Water 467
▁article 467
▁newspaper 467
▁Institute 466
▁Love 466
▁Time 466
▁owned 466
▁1965 465
▁Com 465
▁McC 465
▁Ru 465
▁quickly 465
▁test 465
like 464
▁Carl 464
▁cat 464
▁speed 464
▁Korea 463
▁debut 463
▁road 463
▁spoken 463
grew 462
hr 462
par 461
▁Eu 461
▁Pat 461
▁rights 461
▁Ol 460
▁tall 460
▁toward 460
▁bass 459
▁lines 459
sha 458
▁Ed 458
02 457
ctor 457
iz 457
ray 457
▁Dam 457
▁Nam 457
▁remain 457
▁1949 456
▁Bell 456
▁Home 456
▁election 456
▁electric 456
▁view 456
▁1948 455
▁Bu 455
▁Manchester 455
▁Series 455
▁destroyed 455
92 454
bin 454
cus 454
▁simple 454
▁travel 454
▁Comp 453
▁More 453
▁Van 453
▁deal 453
▁themselves 453
▁Bill 452
▁Elizabeth 452
▁Live 452
▁stories 452
▁Fre 451
▁Prix 451
▁app 451
▁learn 451
chen 450
▁summer 450
▁whole 450
▁winner 450
cht 449
▁Each 449
▁Saturn 449
▁problems 449
ala 448
▁Gen 448
▁equal 448
▁saw 448
▁tried 448
▁Kan 447
▁farm 447
▁qua 447
form 446
ition 446
sphere 446
ugh 446
ö 446
▁declar 446
▁finished 446
▁machine 446
▁throughout 446
-1 445
log 445
▁Department 445
▁Kentucky 445
▁Op 445
▁Sta 445
▁believed 445
▁h 445
▁honor 445
▁parents 445
▁religious 445
.3 444
99 444
ient 444
own 444
tern 444
▁1962 444
▁nuclear 444
pt 443
▁Another 443
ates 442
▁Sweden 442
▁going 442
▁leg 442
.1 441
ä 440
▁Austrian 440
▁hours 440
bel 439
su 439
▁1966 439
▁Ger 439
▁Luc 439
▁gr 439
▁organ 439
▁table 439
▁Alexander 438
▁Egypt 438
▁Frank 438
▁Ku 438
▁dead 438
▁defeated 438
▁enough 438
▁schools 438
▁wrestler 438
fall 437
och 437
tem 437
▁1920 437
▁inter 437
cre 436
▁Anti 436
▁Fo 436
▁calendar 436
▁drink 436
▁em 436
▁racing 436
87 435
rag 435
▁Cu 435
▁Olympic 435
▁standard 435
.4 434
EC 434
king 434
▁1946 434
▁Airport 434
▁friend 434
▁guitarist 434
▁statistics 434
▁stopp 434
mit 433
▁administrative 433
▁cru 433
ight 432
▁About 432
▁Arch 432
▁Tal 432
▁Wood 432
▁ago 432
▁fight 432
arch 431
lon 431
of 431
▁Scott 431
▁Summer 431
bra 430
tru 430
▁Age 430
▁Bank 430
▁Mir 430
▁Olympics 430
▁Federal 429
▁Law 429
▁humans 429
▁pin 429
tis 428
▁Jr 428
▁Korean 428
▁believe 428
▁bomb 428
11 427
lam 427
press 427
▁200 427
▁belong 427
▁films 427
▁happen 427
▁spin 427
▁user 427
14 426
▁Also 426
▁kill 426
▁micro 426
▁wood 426
.6 425
36 425
▁IV 425
▁mi 425
ole 424
tsu 424
▁Song 424
▁Swedish 424
94 423
cal 423
▁Hor 423
▁Persian 423
▁Premier 423
▁drive 423
ston 422
▁cross 422
▁leading 422
▁Cross 421
▁competition 421
▁hot 421
86 420
▁Out 420
▁case 420
▁higher 420
▁manager 420
▁older 420
▁Albert 419
▁bra 419
▁census 419
air 418
bul 418
ore 418
▁1957 418
▁Cast 418
▁ocean 418
▁piano 418
▁80 417
▁Hard 417
▁leaves 417
▁territory 417
89 416
oon 416
ought 416
▁Win 416
▁cut 416
▁sun 416
head 415
▁Holy 415
lum 414
▁Golden 414
▁Reg 414
▁active 414
▁practice 414
bit 413
dia 413
din 413
hn 413
play 413
▁1959 413
▁Cam 413
▁Punjab 413
▁council 413
gin 412
▁fruit 411
meter 410
nch 410
ude 410
▁Front 410
▁Gro 410
▁here 410
▁native 410
▁share 410
▁string 410
key 409
▁1939 409
▁Ontario 409
▁Oxford 409
▁behind 409
▁département 409
▁tri 409
cho 408
rit 408
▁multiple 408
▁split 408
37 407
ale 407
ites 407
late 407
ng 407
▁Stone 407
▁adult 407
▁route 407
ery 406
eu 406
ister 406
osa 406
phe 406
worth 406
▁Cro 406
▁Mount 406
▁Smith 406
▁train 406
dom 405
not 405
wick 405
▁Br 405
▁cook 405
▁double 405
▁fiction 405
cro 404
dri 404
uch 404
▁1952 404
▁Ci 404
▁complex 404
í 403
▁Hal 403
▁Nations 403
▁might 403
▁regular 403
elle 402
ã 402
▁1956 402
▁Force 402
▁Society 402
▁am 402
▁bands 402
▁gu 402
▁pick 402
▁rate 402
eg 401
house 401
ime 401
▁Mur 401
▁Mus 401
▁Sil 401
ara 400
▁Radio 400
▁Raw 400
▁baseball 400
▁deep 400
▁except 400
ju 399
rather 399
▁Linux 399
▁Long 399
▁Will 399
▁dark 399
oid 398
ult 398
▁Town 398
▁relationship 398
▁shape 398
▁trans 398
▁weather 398
,6 397
ges 397
nie 397
▁Ren 397
▁Ten 397
▁heart 397
▁operating 397
▁structure 397
13 396
▁collection 396
▁your 396
ious 395
pen 395
red 395
vor 395
▁Part 395
▁according 395
▁col 395
RA 394
istic 394
▁Then 394
▁Total 394
▁defeat 394
▁gain 394
▁offer 394
pri 393
▁Angel 393
▁Polish 393
year 392
zar 392
▁Les 392
▁Sha 392
▁nine 392
▁ways 392
.8 391
▁1954 391
▁Sim 391
▁build 391
▁male 391
-20 390
.7 390
▁1958 390
▁Andrew 390
▁Group 390
▁Len 390
▁Like 390
▁fact 390
▁physical 390
▁rank 390
▁wing 390
assi 389
▁1953 389
▁90 389
▁Jewish 389
▁Khan 389
▁Max 389
▁Sub 389
▁terms 389
21 388
light 388
▁Dun 388
▁Earl 388
▁mark 388
heim 387
poli 387
unk 387
▁Des 387
▁Ken 387
▁Mont 387
▁Mos 387
▁valley 387
▁Fox 386
▁Main 386
▁translat 386
▁x 386
avi 385
▁End 385
▁fifth 385
▁origin 385
▁reason 385
▁stone 385
▁Boston 384
▁Chris 384
▁Gla 384
▁Kur 384
▁Philip 384
▁copies 384
▁difference 384
▁ha 384
▁street 384
tch 383
▁1955 383
▁cancer 383
▁carbon 383
▁emperor 383
▁husband 383
24 382
west 382
° 382
▁Bridge 382
▁Brit 382
▁Cra 382
▁Microsoft 382
▁compar 382
▁lies 382
▁something 382
▁store 382
,5 381
ington 381
▁Fort 381
▁Ohio 381
▁Winter 381
▁access 381
▁coach 381
▁diameter 381
▁refers 381
char 380
sburg 380
▁1944 380
▁List 380
▁burn 380
▁report 380
▁runs 380
▁sport 380
▁true 380
becoming 379
bury 379
▁Ali 379
▁Gold 379
▁Jean 379
▁bridge 379
▁rules 379
lli 378
mat 378
oxide 378
▁Arthur 378
▁Bir 378
▁continue 378
▁regions 378
▁speak 378
▁watch 378
▁seasons 377
ces 376
▁Vienna 376
▁friends 376
Ï 375
▁Bern 375
▁Cape 375
▁animated 375
▁develop 375
▁industry 375
bro 374
ode 374
▁Greg 374
▁Johann 374
▁Ran 374
▁Wall 374
▁flow 374
▁issue 374
bus 373
ull 373
▁Bible 373
▁Internet 373
▁lu 373
,3 372
its 372
ram 372
▁Bush 372
▁Open 372
▁health 372
▁taking 372
98 371
ata 371
▁35 371
▁Arm 371
▁Ban 371
▁Bou 371
▁Four 371
▁Official 371
▁connect 371
▁su 371
ato 370
cast 370
onic 370
pro 370
▁Kashmir 370
▁Sho 370
▁branch 370
▁prison 370
▁trees 370
gri 369
pel 369
ute 369
▁1942 369
▁Bat 369
▁Sel 369
▁multi 369
bor 368
ene 368
35 367
▁Camp 367
▁fictional 367
▁stations 367
vid 366
} 366
▁Melbourne 366
▁channel 366
▁cr 366
▁da 366
▁historical 366
▁minister 366
▁painter 366
ae 365
fer 365
ook 365
stan 365
▁1900 365
▁Ross 365
▁Symphony 365
▁comedy 365
▁cor 365
▁religion 365
▁remov 365
85 364
stein 364
▁Anne 364
▁Cur 364
▁Gulf 364
▁account 364
▁meeting 364
▁organism 364
lav 363
rk 363
tive 363
å 363
▁already 363
▁moving 363
▁murder 363
▁piece 363
cat 362
▁CD 362
▁Dor 362
▁Em 362
▁See 362
▁face 362
▁reported 362
Y 361
jan 361
mont 361
ome 361
▁Beach 361
▁Michigan 361
▁direct 361
▁flat 361
▁mythology 361
▁trains 361
▁turned 361
▁yellow 361
cker 360
yan 360
▁Mil 360
▁beat 360
▁degree 360
▁del 360
▁founder 360
45 359
gon 359
▁1933 359
▁Var 359
▁disc 359
▁normal 359
▁showed 359
▁web 359
ei 358
ped 358
▁Cap 358
▁dance 358
▁remains 358
▁winning 358
95 357
av 357
put 357
▁Bad 357
▁Iran 357
▁addition 357
▁counties 357
▁future 357
▁our 357
aff 356
mic 356
▁Festival 356
▁Good 356
▁distribution 356
▁elements 356
▁increase 356
▁Fall 355
▁Zo 355
▁Little 354
▁NFL 354
▁Tru 354
▁die 354
▁et 354
▁spent 354
cia 353
ographic 353
▁Democratic 353
▁Yo 353
IA 352
cit 352
▁1918 352
▁Alaska 352
▁Bab 352
▁buri 352
▁kilometre 352
▁widely 352
▁worldwide 352
.9 351
ski 351
▁Mr 351
▁Mu 351
▁airport 351
▁count 351
▁secret 351
▁troops 351
die 350
ok 350
▁1941 350
▁Congress 350
▁Cri 350
▁Ram 350
▁champion 350
▁fun 350
▁nearly 350
▁upper 350
96 349
OS 349
nam 349
renamed 349
ón 349
▁Both 349
▁Family 349
▁Far 349
▁Ham 349
▁Show 349
▁ruler 349
ano 348
ort 348
plo 348
▁Bri 348
▁Francisco 348
▁Nick 348
▁Rod 348
▁complete 348
▁status 348
& 347
ification 347
{ 347
▁Civil 347
▁Gre 347
▁Three 347
▁happened 347
▁leave 347
lov 346
▁Daniel 346
▁Dis 346
back 345
rin 345
town 345
▁Mid 345
▁action 345
▁birds 345
▁gives 345
▁sex 345
▁spread 345
▁tro 345
chy 344
je 344
oli 344
ood 344
pir 344
set 344
▁Wal 344
▁cur 344
▁direction 344
ua 343
▁Israel 343
▁Princess 343
▁continent 343
▁element 343
▁programs 343
▁rivers 343
bl 342
cor 342
eo 342
ich 342
lot 342
▁Del 342
▁Ford 342
▁composed 342
▁news 342
▁users 342
bri 341
cer 341
gor 341
pot 341
▁Cathedral 341
▁Pennsylvania 341
▁Spe 341
▁mar 341
▁strip 341
▁tradition 341
kar 340
ory 340
var 340
▁Dol 340
▁Member 340
▁Sometime 340
▁Sydney 340
▁legal 340
▁lo 340
▁mouth 340
▁running 340
ama 339
arian 339
central 339
stra 339
▁Columbia 339
▁Hart 339
▁Hay 339
▁Heart 339
▁Lincoln 339
▁Modern 339
▁contract 339
▁theater 339
▁van 339
▁vocals 339
▁Alabama 338
▁Dal 338
▁Museum 338
▁Stephen 338
▁alternative 338
▁board 338
▁editor 338
▁era 338
▁section 338
▁seed 338
▁serve 338
▁warm 338
ain 337
▁Pra 337
▁Work 337
▁chosen 337
▁cold 337
▁flood 337
▁mountains 337
▁normally 337
nu 336
vol 336
▁500 336
▁Az 336
▁difficult 336
▁let 336
▁nickname 336
▁studies 336
▁tournament 336
-2 335
ban 335
til 335
tric 335
▁1936 335
▁Ang 335
▁Hol 335
▁Opera 335
▁commercial 335
▁drum 335
▁eye 335
▁mammal 335
mis 334
more 334
sey 334
▁Who 334
▁conducted 334
▁reign 334
▁Ash 333
▁Band 333
▁Thi 333
▁cast 333
▁collect 333
▁signal 333
▁suggest 333
anda 332
born 332
▁Cambridge 332
▁DVD 332
▁Kal 332
▁Kong 332
▁Mas 332
▁Mat 332
▁billion 332
▁hold 332
▁month 332
▁nature 332
▁upon 332
88 331
cur 331
pu 331
ration 331
ssociated 331
wo 331
É 331
▁greatest 331
▁tea 331
law 330
▁1937 330
▁Chief 330
▁Leon 330
▁Mass 330
▁earlier 330
▁entire 330
▁spell 330
▁tu 330
26 329
Z 329
fu 329
lem 329
▁fossil 329
▁salt 329
▁versions 329
66 328
dorf 328
▁Joe 328
▁Kelly 328
▁Matt 328
▁Order 328
▁climate 328
▁education 328
▁experience 328
▁image 328
▁wild 328
RC 327
aceae 327
cel 327
kan 327
wan 327
▁Common 327
▁Revolution 327
▁] 327
▁bought 327
▁festival 327
▁function 327
▁sequel 327
43 326
_ 326
▁effect 326
▁hair 326
▁weeks 326
fin 325
lay 325
▁Fame 325
▁Walt 325
▁foot 325
▁further 325
▁inhabitants 325
▁par 325
▁poor 325
▁soldiers 325
▁solo 325
▁someone 325
▁union 325
yer 324
▁Commonwealth 324
▁Jersey 324
▁actually 324
▁companies 324
▁flower 324
▁individual 324
▁opening 324
32 323
fre 323
ngel 323
▁Ac 323
▁Czech 323
▁Jane 323
▁Massachusetts 323
▁Rhine 323
▁Wil 323
▁Wild 323
▁refer 323
▁room 323
38 322
▁DNA 322
▁broadcast 322
▁closed 322
▁covered 322
▁directly 322
▁figure 322
▁pieces 322
39 321
bach 321
most 321
mus 321
star 321
▁1951 321
▁Brand 321
▁Tan 321
▁alphabet 321
▁cars 321
▁turn 321
giving 320
▁45 320
▁Denmark 320
▁Rail 320
▁Stadium 320
▁awards 320
▁pa 320
▁provid 320
▁Film 319
▁clear 319
▁cover 319
▁flu 319
▁pal 319
▁value 319
31 318
del 318
ller 318
rew 318
▁1943 318
▁Bavaria 318
▁Bor 318
▁Portuguese 318
▁bus 318
▁depression 318
▁etc 318
▁extra 318
▁formula 318
▁ideas 318
▁medal 318
Man 317
feld 317
hara 317
net 317
▁32 317
▁Francis 317
▁Hot 317
▁attempt 317
▁file 317
▁involved 317
▁media 317
▁recent 317
28 316
American 316
ann 316
▁[ 316
▁bio 316
▁chief 316
▁particular 316
▁sexual 316
76 315
pic 315
ula 315
yne 315
▁Sk 315
▁Trans 315
▁Up 315
▁carrie 315
▁cm 315
▁medical 315
▁mill 315
lar 314
trop 314
wing 314
▁Av 314
▁Kim 314
▁News 314
▁Sand 314
▁Saxony 314
▁Science 314
▁Stanley 314
▁cal 314
▁cases 314
▁defin 314
▁eventually 314
▁powerful 314
44 313
Q 313
agne 313
horn 313
ye 313
Ñ 313
▁Baseball 313
▁Coast 313
▁Frederick 313
▁Indiana 313
▁Light 313
▁Moscow 313
▁Pap 313
▁bird 313
▁skin 313
ira 312
▁AD 312
▁Bart 312
▁Garden 312
▁Ye 312
▁meters 312
▁product 312
▁winter 312
cation 311
dra 311
eng 311
▁Dynasty 311
▁Final 311
▁Turkey 311
▁philosopher 311
▁problem 311
▁rich 311
▁wall 311
rum 310
▁1934 310
▁1938 310
▁Castle 310
▁Pen 310
▁architecture 310
▁tax 310
▁teacher 310
▁training 310
93 309
ase 309
▁? 309
▁Doctor 309
▁Key 309
▁Lar 309
▁Marie 309
▁digital 309
▁forced 309
▁hill 309
▁houses 309
▁prime 309
▁ran 309
▁records 309
33 308
tar 308
▁Greece 308
▁Hindu 308
▁edit 308
▁plan 308
▁pot 308
▁products 308
▁sand 308
▁seem 308
aya 307
hl 307
igh 307
ose 307
wich 307
▁Ball 307
▁Cer 307
▁Singapore 307
▁Wor 307
▁earthquake 307
▁minutes 307
ami 306
▁Mississippi 306
▁dynasty 306
▁motor 306
▁str 306
pho 305
▁Die 305
▁basic 305
▁environment 305
▁map 305
▁singles 305
bol 304
▁1932 304
▁70 304
▁Bull 304
▁method 304
▁my 304
rid 303
spite 303
▁1919 303
▁Picture 303
▁Treaty 303
▁display 303
▁peak 303
▁violin 303
29 302
teen 302
▁Arts 302
▁Islamic 302
▁Tar 302
▁centre 302
▁completed 302
▁console 302
▁gets 302
▁meant 302
▁specific 302
ense 301
▁How 301
▁Jackson 301
▁Protestant 301
▁category 301
▁particularly 301
▁personal 301
▁scene 301
ava 300
dale 300
grad 300
ora 300
▁Peace 300
▁Service 300
▁arch 300
▁card 300
▁drama 300
▁drug 300
▁independence 300
▁merg 300
▁northeast 300
ith 299
ject 299
ky 299
▁Gor 299
▁Inc 299
▁Pass 299
▁Robinson 299
▁Top 299
▁castle 299
▁estimated 299
▁listed 299
▁matter 299
▁nearby 299
ault 298
era 298
▁1929 298
▁Power 298
▁Toronto 298
▁appointed 298
▁escape 298
▁flows 298
▁letters 298
▁pan 298
▁professor 298
27 297
Mar 297
aga 297
matic 297
ob 297
▁Michel 297
▁Rob 297
▁attacks 297
▁basketball 297
▁sentence 297
ür 296
▁App 296
▁Chile 296
▁Example 296
▁Human 296
▁Jan 296
▁Son 296
▁breed 296
▁charge 296
▁literature 296
▁objects 296
▁paint 296
▁plate 296
▁scientific 296
▁shot 296
▁tube 296
42 295
ert 295
▁content 295
▁fighting 295
▁score 295
▁wear 295
bil 294
gram 294
los 294
rom 294
▁Anna 294
▁Jam 294
▁artists 294
▁parallel 294
▁peace 294
▁previous 294
▁royal 294
▁self 294
for 293
gent 293
lock 293
▁Eli 293
▁concept 293
▁cultural 293
dan 292
▁Area 292
▁Simpson 292
▁Sound 292
▁cap 292
▁doctor 292
▁generation 292
▁metres 292
▁represent 292
▁Channel 291
▁Master 291
▁Swiss 291
▁Triple 291
▁solid 291
▁theme 291
agh 290
dal 290
▁1935 290
▁dry 290
▁roles 290
▁supported 290
▁Minnesota 289
▁garden 289
▁height 289
▁instruments 289
▁recently 289
ico 288
ock 288
▁Karl 288
▁campaign 288
▁centuries 288
▁earliest 288
▁fast 288
▁horse 288
▁roll 288
aries 287
fo 287
ique 287
naut 287
▁Not 287
▁Pal 287
▁growth 287
▁semi 287
▁settlement 287
▁visit 287
75 286
enberg 286
ij 286
pre 286
▁Barb 286
▁Rose 286
▁Spring 286
▁Ste 286
▁Turkish 286
▁device 286
▁industrial 286
hor 285
nut 285
ution 285
▁Play 285
▁cathedral 285
▁twenty 285
cing 284
kov 284
tha 284
yn 284
▁1925 284
▁Ancient 284
▁Bru 284
▁Fin 284
▁adopted 284
▁conditions 284
▁imp 284
gh 283
long 283
nal 283
via 283
▁Arabic 283
▁Argentina 283
▁Jim 283
▁Only 283
▁Roger 283
▁belief 283
▁brothers 283
▁chain 283
▁sing 283
▁walk 283
az 282
pin 282
ping 282
▁Foundation 282
▁Sav 282
▁command 282
▁gene 282
▁organis 282
▁spring 282
5,000 281
hin 281
room 281
water 281
æ 281
▁Hungary 281
▁Pyr 281
▁aircraft 281
▁laws 281
▁mosque 281
app 280
fish 280
ody 280
án 280
▁Back 280
▁Bol 280
▁Mountains 280
▁opposite 280
▁starts 280
▁strength 280
imp 279
rian 279
ties 279
▁Christmas 279
▁classical 279
▁electronic 279
▁marriage 279
▁milk 279
▁ships 279
▁speech 279
23 278
nic 278
pod 278
▁51 278
▁Burg 278
▁Ir 278
▁Pop 278
▁Shin 278
▁Steve 278
▁ban 278
▁circuit 278
▁completely 278
▁sail 278
▁subject 278
34 277
▁1924 277
▁Kansas 277
▁Public 277
▁engineering 277
▁levels 277
▁whether 277
fra 276
gal 276
ides 276
ika 276
len 276
part 276
script 276
▁75 276
▁Norway 276
▁Seven 276
▁flight 276
▁location 276
▁museum 276
▁path 276
▁responsible 276
eb 275
ero 275
my 275
▁Armenia 275
▁Office 275
▁Pala 275
▁Press 275
▁Yorkshire 275
▁add 275
▁approximately 275
▁episodes 275
▁municipalities 275
▁prize 275
▁sell 275
72 274
91 274
etic 274
mir 274
▁1910 274
▁Arab 274
▁Conference 274
▁Kat 274
▁Ky 274
▁Region 274
▁Upper 274
▁Women 274
▁expect 274
▁format 274
▁genetic 274
▁songwriter 274
cin 273
lio 273
rate 273
tel 273
▁Islam 273
▁eggs 273
▁electron 273
▁explor 273
▁ob 273
▁younger 273
65 272
84 272
ivity 272
oma 272
zy 272
ç 272
▁Mess 272
▁borough 272
▁fuel 272
▁grown 272
▁message 272
▁reference 272
▁urban 272
71 271
court 271
dor 271
ised 271
nel 271
▁1901 271
▁Hawaii 271
▁Lind 271
▁appearance 271
▁arms 271
▁bone 271
▁ro 271
nia 270
▁Girl 270
▁Hamilton 270
▁Monte 270
▁Williams 270
▁construction 270
▁grand 270
▁longest 270
▁master 270
▁mathematics 270
▁translation 270
II 269
ago 269
ball 269
mmer 269
rap 269
rod 269
▁Adams 269
▁Asian 269
▁Hitler 269
▁Neu 269
▁Orthodox 269
▁Peninsula 269
▁annual 269
▁foreign 269
▁plane 269
▁solar 269
▁teaching 269
hel 268
▁Munich 268
▁Walter 268
▁bottom 268
▁combined 268
▁contest 268
▁extinct 268
▁sal 268
▁sil 268
based 267
gla 267
osis 267
ó 267
▁Bowl 267
▁Lin 267
▁Palace 267
▁Statistics 267
▁principal 267
▁southwestern 267
▁stayed 267
▁student 267
run 266
▁1927 266
▁Colorado 266
▁Corporation 266
▁construct 266
▁fair 266
▁focus 266
▁governor 266
▁pronounc 266
▁send 266
chu 265
elli 265
where 265
▁33 265
▁Note 265
▁circle 265
▁fall 265
▁feel 265
▁folk 265
▁platform 265
▁sixth 265
▁transport 265
▁variety 265
cell 264
graph 264
tress 264
▁Clark 264
▁officer 264
▁twice 264
board 263
ote 263
tique 263
▁1912 263
▁Census 263
▁Cle 263
▁Jews 263
▁Portugal 263
▁agreement 263
▁bin 263
▁bright 263
▁chess 263
▁comic 263
▁cost 263
▁layer 263
▁mission 263
▁pair 263
▁react 263
▁saying 263
▁sources 263
81 262
bur 262
gy 262
zz 262
▁150 262
▁300 262
▁Beau 262
▁Constitution 262
▁Hav 262
▁Hong 262
▁der 262
▁pl 262
▁powers 262
▁relative 262
▁taught 262
82 261
lash 261
wall 261
▁Gil 261
▁Jen 261
▁Simon 261
▁alone 261
▁conduct 261
▁crime 261
▁hall 261
▁mixed 261
▁propos 261
77 260
cies 260
dar 260
ency 260
▁Kara 260
▁Last 260
▁Navy 260
▁Post 260
▁Space 260
▁bigger 260
▁bring 260
▁images 260
▁pattern 260
▁rise 260
▁separated 260
\* 259
▁1914 259
▁Fr 259
▁Mill 259
▁What 259
▁connected 259
▁insect 259
▁materials 259
▁mathematician 259
▁philosophy 259
▁recognized 259
▁significant 259
▁thick 259
▁weight 259
mond 258
rac 258
▁Belgium 258
▁Hans 258
▁Mah 258
▁Wind 258
▁activities 258
▁floor 258
▁particle 258
▁prevent 258
▁whom 258
22 257
▁1911 257
▁Director 257
▁Florence 257
▁Professor 257
▁Reich 257
▁Way 257
▁families 257
▁perform 257
▁slow 257
gio 256
right 256
vert 256
win 256
▁Cher 256
▁Dream 256
▁credit 256
▁eyes 256
▁iron 256
▁kingdom 256
▁physics 256
▁policy 256
▁situated 256
▁spot 256
▁volume 256
arm 255
cen 255
ello 255
eur 255
lat 255
pul 255
spec 255
zer 255
▁1928 255
▁Hum 255
▁Thur 255
▁Wilson 255
▁cycle 255
▁majority 255
▁primary 255
▁suburb 255
cra 254
hard 254
yr 254
▁Down 254
▁Now 254
▁Sab 254
▁Square 254
▁Taylor 254
▁behavior 254
▁earth 254
▁easily 254
▁leaving 254
▁mis 254
▁southeast 254
▁throw 254
aki 253
raw 253
ridge 253
uka 253
▁Highway 253
▁Know 253
▁bear 253
▁causes 253
▁edge 253
▁experiment 253
▁graduat 253
▁sav 253
core 252
▁Surviv 252
▁Virgin 252
▁acting 252
▁historian 252
▁jazz 252
▁purpose 252
TA 251
▁64 251
▁Album 251
▁Caribbean 251
▁Cold 251
▁Motor 251
▁effects 251
▁online 251
▁prince 251
illo 250
kel 250
pect 250
rat 250
▁1923 250
▁Dark 250
▁Finland 250
▁Forest 250
▁Jones 250
▁astronomer 250
▁liquid 250
▁occur 250
▁punk 250
▁restaurant 250
78 249
83 249
Ar 249
rup 249
struc 249
▁Every 249
▁Montreal 249
▁Social 249
▁ends 249
▁headquarters 249
▁photo 249
▁script 249
▁tourist 249
49 248
69 248
ather 248
gie 248
▁Borough 248
▁Kir 248
▁Ray 248
▁Station 248
▁Sunday 248
▁Tokyo 248
▁Wei 248
▁bacteria 248
▁explain 248
▁jump 248
▁search 248
▁step 248
ability 247
ida 247
lop 247
round 247
uri 247
▁Charlotte 247
▁Kin 247
▁Matthew 247
▁Mediterranean 247
▁Special 247
▁XI 247
▁broke 247
▁churches 247
▁evidence 247
▁giant 247
▁guest 247
▁kilometer 247
▁rough 247
▁soft 247
▁stay 247
ada 246
pan 246
▁1926 246
▁Fu 246
▁Ker 246
▁Ly 246
▁Of 246
▁Shar 246
▁arts 246
▁course 246
▁instruction 246
▁pet 246
▁society 246
▁straight 246
pplied 245
▁Ann 245
▁Mau 245
▁rail 245
▁rural 245
▁shared 245
▁shell 245
▁singing 245
▁sugar 245
ulf 244
▁Rub 244
▁Steven 244
▁draft 244
▁mix 244
acy 243
atory 243
▁Bear 243
▁Jeff 243
▁Lau 243
▁Moon 243
▁Wolf 243
▁agreed 243
▁cloud 243
▁covers 243
▁crash 243
▁defend 243
▁girl 243
▁sang 243
▁stand 243
hand 242
ident 242
mail 242
odi 242
wer 242
zu 242
▁Juan 242
▁Mak 242
▁Network 242
▁Prussia 242
▁Shan 242
▁VI 242
▁Wilhelm 242
▁plain 242
▁row 242
▁sons 242
47 241
eva 241
rick 241
▁Cop 241
▁Dominican 241
▁Lan 241
▁Lang 241
▁Mol 241
▁Pin 241
▁Roll 241
▁Taiwan 241
▁challenge 241
▁feed 241
▁mineral 241
▁partner 241
74 240
ag 240
nan 240
▁2011 240
▁Gon 240
▁Has 240
▁Metro 240
▁address 240
▁federal 240
▁fur 240
▁instrument 240
▁previously 240
46 239
ander 239
hol 239
▁Disc 239
▁Ferdinand 239
▁Friedrich 239
▁Gall 239
▁Geneva 239
▁Jon 239
▁Qui 239
▁claimed 239
▁results 239
▁volcano 239
bia 238
ili 238
▁1922 238
▁convert 238
▁guard 238
▁ju 238
▁log 238
▁moment 238
▁property 238
▁raised 238
▁thus 238
67 237
book 237
moto 237
▁Burn 237
▁Quebec 237
▁Titan 237
▁attended 237
▁chocolate 237
▁comedian 237
▁memory 237
▁wine 237
under 236
vat 236
▁Classic 236
▁Mike 236
▁boat 236
▁forest 236
▁manag 236
▁min 236
▁zone 236
55 235
FC 235
gger 235
maker 235
nor 235
ost 235
ott 235
▁Bangladesh 235
▁Christianity 235
▁Racing 235
▁SS 235
▁Sports 235
▁Well 235
▁belt 235
▁boy 235
▁expand 235
▁interview 235
▁mm 235
▁rare 235
▁stock 235
59 234
64 234
68 234
onia 234
rop 234
work 234
▁1917 234
▁Brian 234
▁Real 234
▁Short 234
▁exchange 234
▁monarch 234
▁organized 234
▁poly 234
hem 233
nce 233
pol 233
▁1908 233
▁Alex 233
▁Egyptian 233
▁Greater 233
▁Mag 233
▁Run 233
▁Swa 233
▁chance 233
▁coin 233
▁depend 233
▁electro 233
▁growing 233
▁reaction 233
▁surviv 233
▁technology 233
adi 232
gna 232
▁Indonesia 232
▁Palm 232
▁angle 232
▁empire 232
▁follow 232
▁invit 232
▁plann 232
▁tail 232
▁Adam 231
▁Education 231
▁Fan 231
▁Samuel 231
▁Sto 231
▁association 231
▁beach 231
▁evolution 231
▁glass 231
▁grant 231
▁hour 231
▁likely 231
isation 230
▁Alfred 230
▁Bob 230
▁Interstate 230
▁Justice 230
▁Mountain 230
▁Pur 230
▁activity 230
▁auto 230
▁coming 230
▁crown 230
▁flowers 230
▁increased 230
▁judge 230
▁note 230
▁sides 230
akh 229
morph 229
pon 229
zon 229
ß 229
▁Brad 229
▁Detroit 229
▁creation 229
▁locomotive 229
▁matches 229
▁parties 229
▁por 229
▁strengthen 229
▁tram 229
hop 228
iti 228
ona 228
▁1921 228
▁Cass 228
▁Federation 228
▁Fred 228
▁Gun 228
▁Tibet 228
▁getting 228
▁hu 228
active 227
mel 227
olo 227
shaped 227
▁Gene 227
▁Haiti 227
▁Helen 227
▁Johnson 227
▁Vice 227
▁hero 227
▁lit 227
▁notable 227
arrow 226
ogen 226
▁1913 226
▁Arizona 226
▁Committee 226
▁Hil 226
▁MP 226
▁Magn 226
▁NBA 226
▁Potter 226
▁Wisconsin 226
▁flavor 226
▁formerly 226
▁onto 226
▁silver 226
▁sleep 226
▁villages 226
73 225
burn 225
cut 225
lit 225
ral 225
▁1931 225
▁Darwin 225
▁Library 225
▁Sen 225
▁Territory 225
▁Tur 225
▁bas 225
▁couple 225
▁twin 225
▁walls 225
iano 224
quit 224
▁Billboard 224
▁Fra 224
▁Here 224
▁Micro 224
▁Rat 224
▁Sh 224
▁care 224
▁closely 224
▁cool 224
▁fashion 224
▁harm 224
▁holds 224
▁overall 224
▁seventh 224
▁slowly 224
▁weaken 224
chan 223
plat 223
▁Ag 223
▁Field 223
▁Metropolitan 223
▁Vietnam 223
▁abbreviat 223
▁buy 223
▁document 223
▁highly 223
▁molecule 223
▁soil 223
▁thin 223
▁yet 223
ien 222
lk 222
ntil 222
▁Afghanistan 222
▁Fair 222
▁Hai 222
▁Lim 222
▁Ottoman 222
▁PC 222
▁Rain 222
▁Several 222
▁colony 222
▁combination 222
▁goals 222
▁govern 222
▁hands 222
▁killing 222
▁owner 222
▁pole 222
▁refus 222
▁sense 222
▁ski 222
ES 221
bat 221
cio 221
eaten 221
post 221
zza 221
▁Bour 221
▁Esp 221
▁Grammy 221
▁Head 221
▁Mari 221
▁Milan 221
▁Shaw 221
▁controlled 221
▁limit 221
▁narrow 221
▁nominated 221
▁proper 221
▁suggested 221
▁tennis 221
▁treaty 221
48 220
Between 220
blo 220
card 220
vil 220
▁Argentine 220
▁Caesar 220
▁Category 220
▁Pet 220
▁domestic 220
▁hospital 220
▁launched 220
▁musicians 220
▁substance 220
▁titles 220
gli 219
gun 219
▁Anton 219
▁Coll 219
▁EP 219
▁Gri 219
▁Lou 219
▁Tennessee 219
▁Your 219
▁audience 219
▁definition 219
▁earned 219
▁mode 219
▁parliament 219
vy 218
▁65 218
▁Assembly 218
▁Il 218
▁Kon 218
▁Tag 218
▁designation 218
▁limited 218
▁priest 218
▁reading 218
▁soccer 218
▁target 218
▁trial 218
box 217
ddy 217
gate 217
ulate 217
urg 217
▁Gabriel 217
▁Jun 217
▁Kor 217
▁contact 217
▁weak 217
lle 216
ough 216
▁38 216
▁Antarctic 216
▁Missouri 216
▁Philadelphia 216
▁Theatre 216
▁claim 216
▁phrase 216
▁quite 216
▁reform 216
▁stands 216
▁universe 216
▁Apple 215
▁Hollywood 215
▁attach 215
▁captured 215
▁density 215
▁door 215
▁hole 215
▁organizations 215
bun 214
▁36 214
▁Berg 214
▁Ever 214
▁Guinea 214
▁Iron 214
▁Lower 214
▁Senate 214
▁Tony 214
▁attract 214
▁clean 214
▁communication 214
▁hunt 214
▁mentioned 214
▁races 214
▁receive 214
▁replace 214
▁typically 214
Ch 213
onne 213
▁Creek 213
▁Draft 213
▁Lyn 213
▁Shah 213
▁mag 213
▁vol 213
CC 212
type 212
▁Abbey 212
▁Benjamin 212
▁Christopher 212
▁Cow 212
▁Dra 212
▁Dy 212
▁Miss 212
▁Rad 212
▁applications 212
▁paintings 212
▁protein 212
▁question 212
▁snow 212
▁surround 212
awa 211
lid 211
stead 211
tting 211
▁1890 211
▁Birmingham 211
▁Cru 211
▁Danish 211
▁Madrid 211
▁brown 211
▁climb 211
▁economy 211
▁meat 211
▁selection 211
▁universities 211
56 210
aught 210
teau 210
ule 210
▁1903 210
▁Barr 210
▁Bon 210
▁Est 210
▁Hand 210
▁Hungarian 210
▁Mayor 210
▁Mexican 210
▁Pic 210
▁Research 210
▁Rio 210
▁composition 210
▁fully 210
▁mayor 210
▁metropolitan 210
▁rat 210
▁reasons 210
▁reproduc 210
▁require 210
,500 209
Co 209
iff 209
ming 209
position 209
▁400 209
▁Arabia 209
▁Depression 209
▁Labor 209
▁Mai 209
▁Point 209
▁Republican 209
▁approach 209
▁bill 209
▁captain 209
▁compet 209
▁degrees 209
▁fine 209
▁formal 209
▁income 209
▁medicine 209
▁prayer 209
▁sales 209
▁serious 209
▁stated 209
▁virus 209
aging 208
kh 208
▁1916 208
▁55 208
▁Kh 208
▁Original 208
▁Pont 208
▁Rud 208
▁Type 208
▁else 208
▁leaders 208
▁required 208
▁selected 208
▁stick 208
▁stream 208
▁wins 208
bow 207
cene 207
crat 207
▁Idaho 207
▁Norwegian 207
▁Westminster 207
▁bodies 207
▁ending 207
▁fans 207
▁fell 207
▁plastic 207
▁slightly 207
▁solution 207
▁throne 207
▁visited 207
aka 206
eve 206
ree 206
▁42 206
▁Advanc 206
▁Knight 206
▁acts 206
▁catch 206
▁dam 206
▁decide 206
▁huge 206
▁principle 206
▁scientists 206
▁tower 206
▁treatment 206
▁trip 206
▁via 206
▁writers 206
63 205
ben 205
cum 205
ensis 205
enstein 205
▁Captain 205
▁Der 205
▁Player 205
▁Puerto 205
▁agent 205
▁atomic 205
▁el 205
▁motion 205
▁why 205
61 204
^ 204
vic 204
▁Bernard 204
▁Children 204
▁Lev 204
▁Patrick 204
▁Warner 204
▁fields 204
▁hip 204
▁showing 204
▁stretch 204
▁unusual 204
ctic 203
iya 203
kins 203
▁Bishop 203
▁Centre 203
▁Cli 203
▁Current 203
▁Flor 203
▁Follow 203
▁Muhammad 203
▁Security 203
▁apart 203
▁basis 203
▁comput 203
▁drummer 203
▁goddess 203
▁license 203
▁touch 203
53 202
asi 202
duction 202
rab 202
reg 202
▁Cel 202
▁Graham 202
▁Kam 202
▁Media 202
▁Sur 202
▁Underground 202
▁copy 202
▁dispute 202
▁failed 202
▁represented 202
▁varie 202
▁worship 202
▁youngest 202
58 201
CA 201
col 201
urge 201
ér 201
▁37 201
▁Basil 201
▁Bureau 201
▁Pierre 201
▁Schu 201
▁Whi 201
▁avoid 201
▁cartoon 201
▁measure 201
▁press 201
▁reveal 201
▁rival 201
▁security 201
▁serving 201
▁sites 201
▁wheel 201
79 200
chin 200
cl 200
ink 200
lau 200
level 200
rang 200
▁Arkansas 200
▁Auto 200
▁Baron 200
▁Capital 200
▁Chang 200
▁Corn 200
▁FC 200
▁Ivan 200
▁Medicine 200
▁characteristic 200
▁paid 200
▁painting 200
▁playoff 200
▁pool 200
▁pull 200
▁situation 200
▁speaker 200
▁traffic 200
57 199
TV 199
ddle 199
gle 199
▁/ 199
▁39 199
▁Allen 199
▁Anthony 199
▁Bengal 199
▁Cuba 199
▁Derby 199
▁Heavyweight 199
▁Ian 199
▁Lion 199
▁Silver 199
▁executive 199
▁morning 199
▁rapid 199
met 198
▁Fur 198
▁Lewis 198
▁Tam 198
▁celebrated 198
▁gun 198
▁looking 198
▁lyrics 198
▁operat 198
▁remaining 198
▁sin 198
▁twelve 198
itation 197
▁1915 197
▁Six 197
▁biology 197
▁meta 197
▁server 197
▁suffer 197
▁surrounding 197
asa 196
hill 196
lag 196
spired 196
▁34 196
▁Ak 196
▁Born 196
▁Hebrew 196
▁Isle 196
▁Java 196
▁Television 196
▁Vancouver 196
▁ability 196
▁connection 196
▁grass 196
▁journalist 196
▁loss 196
▁radiation 196
▁useful 196
General 195
cop 195
logy 195
▁48 195
▁Clo 195
▁Country 195
▁Monroe 195
▁Nar 195
▁Temple 195
▁administration 195
▁architect 195
▁arrested 195
▁capture 195
▁client 195
▁coat 195
▁descend 195
▁follows 195
▁scientist 195
▁thousands 195
▁victory 195
bird 194
life 194
▁1906 194
▁Beatles 194
▁Cook 194
▁Gate 194
▁Glasgow 194
▁Kra 194
▁Que 194
▁Single 194
▁Turk 194
▁decision 194
▁designer 194
▁ethnic 194
▁needs 194
▁remember 194
▁shore 194
▁sweet 194
▁unknown 194
rant 193
▁1865 193
▁Again 193
▁Concert 193
▁Iraq 193
▁Phoenix 193
▁Tele 193
▁accident 193
▁literal 193
▁pilot 193
▁teach 193
▁territories 193
▁therefore 193
ME 192
hall 192
lain 192
▁1000 192
▁1904 192
▁Base 192
▁Eric 192
▁Imperial 192
▁Kennedy 192
▁Mun 192
▁Peru 192
▁Sarah 192
▁Standard 192
▁Susan 192
▁brain 192
▁invad 192
▁sharp 192
body 191
mun 191
tier 191
▁Bruce 191
▁Ent 191
▁Harrison 191
▁Hills 191
▁Independence 191
▁Louisiana 191
▁Ob 191
▁Petr 191
▁PlayStation 191
▁Zu 191
▁core 191
▁electricity 191
▁lack 191
▁price 191
▁relations 191
▁request 191
cial 190
llen 190
pat 190
pop 190
rm 190
▁1895 190
▁Antonio 190
▁Bach 190
▁Billy 190
▁Bla 190
▁Temp 190
▁colour 190
▁dates 190
▁demand 190
▁desert 190
▁express 190
▁ill 190
▁items 190
▁sat 190
SA 189
aria 189
dig 189
get 189
made 189
uv 189
▁1902 189
▁Dick 189
▁Euro 189
▁Trophy 189
▁VIII 189
▁Zone 189
▁changing 189
▁greater 189
▁potential 189
▁resign 189
boy 188
last 188
nar 188
shima 188
~ 188
▁Carter 188
▁Philippines 188
▁clubs 188
▁conflict 188
▁corner 188
▁financial 188
▁fit 188
▁formation 188
▁invasion 188
▁operate 188
▁peninsula 188
▁percent 188
▁pianist 188
▁primari 188
▁programming 188
▁rose 188
62 187
TC 187
ave 187
bla 187
fort 187
oper 187
▁Catherine 187
▁Diego 187
▁Five 187
▁Olympia 187
▁Vale 187
▁classified 187
▁eleven 187
▁fly 187
▁heard 187
▁impact 187
▁labor 187
▁quot 187
▁tracks 187
▁weapons 187
ado 186
media 186
rio 186
ware 186
▁Alexandr 186
▁Jose 186
▁Kre 186
▁Magazine 186
▁Miller 186
▁Supreme 186
▁epi 186
▁largely 186
▁medium 186
▁push 186
▁skate 186
In 185
hood 185
race 185
stadt 185
▁Board 185
▁Electric 185
▁Plan 185
▁Raven 185
▁Ry 185
▁Tower 185
▁affect 185
▁condition 185
▁correct 185
▁drawing 185
▁engineer 185
▁keyboard 185
▁maximum 185
▁positive 185
▁presented 185
54 184
CE 184
MI 184
print 184
state 184
tral 184
worm 184
zen 184
▁Alan 184
▁Bobby 184
▁Lithuania 184
▁Thr 184
▁agree 184
▁employ 184
▁hundred 184
▁internal 184
▁poem 184
▁politics 184
▁selling 184
▁teeth 184
cock 183
lf 183
née 183
wald 183
▁Chancellor 183
▁Friday 183
▁Get 183
▁Leonard 183
▁arm 183
▁bush 183
▁constant 183
▁custom 183
▁equipment 183
▁genre 183
▁regional 183
▁sets 183
▁subtropic 183
▁syn 183
hra 182
ibb 182
▁Adventure 182
▁Astro 182
▁Language 182
▁Napoleon 182
▁Police 182
▁Senator 182
▁VII 182
▁adventure 182
▁affected 182
▁cheese 182
▁enjoy 182
▁queen 182
▁reflect 182
▁save 182
▁steel 182
▁structures 182
ison 181
▁Care 181
▁Cole 181
▁Howard 181
▁Margaret 181
▁Math 181
▁Morris 181
▁Sky 181
▁Spi 181
▁ceremony 181
▁confirm 181
▁dedicat 181
▁expansion 181
▁functions 181
▁mono 181
▁rescue 181
but 180
down 180
uki 180
▁1891 180
▁Defense 180
▁Jay 180
▁Orange 180
▁Pittsburgh 180
▁Seattle 180
▁Slav 180
▁Tamil 180
▁Times 180
▁Villa 180
▁finish 180
▁forward 180
▁graphic 180
▁infection 180
▁notes 180
▁radi 180
▁setting 180
▁standing 180
▁stores 180
▁unique 180
▁vo 180
AA 179
ify 179
itis 179
master 179
tti 179
wel 179
▁1880 179
▁1905 179
▁Commission 179
▁Hell 179
▁Hunt 179
▁beautiful 179
▁bishop 179
▁cards 179
▁conf 179
▁convict 179
▁doing 179
▁electrical 179
▁fantasy 179
▁freedom 179
▁hop 179
▁notice 179
▁operation 179
▁permanent 179
▁slave 179
▁workers 179
MS 178
craft 178
ific 178
odor 178
tte 178
weight 178
wl 178
ün 178
▁Cou 178
▁Franklin 178
▁Jordan 178
▁Late 178
▁Lawrence 178
▁MTV 178
▁Pun 178
▁UN 178
▁Video 178
▁Zi 178
▁communities 178
▁dragon 178
▁historic 178
▁library 178
▁orange 178
▁perfect 178
▁shop 178
▁staff 178
▁1907 177
▁Austin 177
▁Blo 177
▁Davis 177
▁Kath 177
▁Kent 177
▁Socialist 177
▁Sri 177
▁Stock 177
▁Story 177
▁algorithm 177
▁chose 177
▁column 177
▁divorc 177
▁fan 177
▁finds 177
▁models 177
▁projects 177
▁worn 177
ech 176
gawa 176
gui 176
hawk 176
▁43 176
▁Gran 176
▁Organization 176
▁ancestor 176
▁creat 176
▁phone 176
IN 175
ati 175
oh 175
osaurus 175
vision 175
▁1909 175
▁Cardinal 175
▁Clinton 175
▁Comm 175
▁Dead 175
▁Ple 175
▁Taka 175
▁actual 175
▁authority 175
▁coastal 175
▁dinosaur 175
▁rep 175
▁scored 175
▁sequence 175
▁settled 175
▁ste 175
chlor 174
ically 174
mouth 174
ophil 174
uf 174
uku 174
zan 174
▁1898 174
▁Bow 174
▁Brun 174
▁Child 174
▁Franco 174
▁Renaissance 174
▁Saturday 174
▁Sau 174
▁Third 174
▁Yama 174
▁candidate 174
▁classic 174
▁dialect 174
▁logic 174
▁medieval 174
▁noble 174
▁parish 174
▁poetry 174
▁respect 174
phone 173
▁Call 173
▁Father 173
▁Liverpool 173
▁Ministry 173
▁Project 173
▁Ty 173
▁Welsh 173
▁arrived 173
▁atmosphere 173
▁camera 173
▁dancer 173
▁dish 173
▁distinguish 173
▁ear 173
▁erupt 173
▁failure 173
▁holiday 173
▁joint 173
▁secondary 173
▁sick 173
▁switch 173
▁warning 173
izing 172
▁Malaysia 172
▁Monday 172
▁Wagner 172
▁bed 172
▁classes 172
▁fiber 172
▁immun 172
▁magic 172
▁output 172
▁passenger 172
▁revolution 172
▁statement 172
lane 171
pet 171
▁1879 171
▁Carlos 171
▁Championships 171
▁Chan 171
▁Communist 171
▁Convention 171
▁Elect 171
▁Flanders 171
▁Kevin 171
▁McG 171
▁Midland 171
▁Near 171
▁Ron 171
▁Row 171
▁alcohol 171
▁automobile 171
▁bond 171
▁chamber 171
▁clock 171
▁cup 171
▁defense 171
▁easy 171
▁guide 171
▁methods 171
▁oxygen 171
▁perhaps 171
▁possibly 171
▁shoot 171
▁transfer 171
DA 170
ingham 170
ú 170
▁1889 170
▁Barn 170
▁Byzantine 170
▁Conservative 170
▁Norman 170
▁Qua 170
▁Rich 170
▁Sai 170
▁Spirit 170
▁bell 170
▁choose 170
▁dioxide 170
▁footballer 170
▁hydro 170
▁muscle 170
▁organic 170
▁relatively 170
▁shut 170
▁zoo 170
ators 169
place 169
rill 169
ré 169
titut 169
▁1800 169
▁1870 169
▁Amb 169
▁Gustav 169
▁Rick 169
▁Than 169
▁Ukraine 169
▁Unlike 169
▁assistant 169
▁bat 169
▁clothing 169
▁fat 169
▁fresh 169
▁hang 169
▁hat 169
▁mainland 169
▁nor 169
▁occurred 169
▁palace 169
▁uniform 169
▁values 169
BA 168
ON 168
berry 168
▁120 168
▁250 168
▁Aberdeen 168
▁Alice 168
▁Among 168
▁Franz 168
▁Jerry 168
▁Jet 168
▁Snow 168
▁Syria 168
▁airline 168
▁daily 168
▁extremely 168
▁forests 168
▁global 168
▁issues 168
▁magnitude 168
▁mine 168
▁negative 168
▁protest 168
▁quality 168
AT 167
are 167
ima 167
lla 167
▁Baptist 167
▁Community 167
▁Connecticut 167
▁Indo 167
▁Jacob 167
▁Movie 167
▁Natural 167
▁Number 167
▁Universal 167
▁answer 167
▁arrive 167
▁capacity 167
▁critical 167
▁derived 167
▁dress 167
▁felt 167
▁figures 167
▁hotel 167
▁importance 167
▁mind 167
▁photograph 167
▁portion 167
▁thing 167
▁traveled 167
eau 166
ffe 166
rance 166
tell 166
uz 166
▁Rhode 166
▁Uni 166
▁carry 166
▁draw 166
▁fer 166
▁males 166
▁mechanical 166
▁noted 166
▁operations 166
▁suit 166
51 165
ashi 165
person 165
rel 165
tail 165
ters 165
▁1892 165
▁Anglo 165
▁Arnold 165
▁Dog 165
▁Just 165
▁Native 165
▁Non 165
▁Rangers 165
▁Testament 165
▁Wing 165
▁adapt 165
▁broad 165
▁chapter 165
▁destroy 165
▁handle 165
▁lay 165
▁occupied 165
▁performing 165
▁response 165
▁sure 165
▁turns 165
borough 164
gel 164
▁1899 164
▁Chamber 164
▁Claudi 164
▁Delta 164
▁Emmy 164
▁Fal 164
▁Foreign 164
▁Journal 164
▁Minor 164
▁Mother 164
▁Off 164
▁Soon 164
▁Though 164
▁Wo 164
▁attention 164
▁distinct 164
▁extended 164
▁extension 164
▁faith 164
▁hydrogen 164
▁indicate 164
▁soul 164
▁temple 164
▁tissue 164
cade 163
point 163
uda 163
winning 163
▁Grey 163
▁Jerusalem 163
▁Once 163
▁analog 163
▁coffee 163
▁immediately 163
▁poll 163
▁rhythm 163
▁satellite 163
41 162
Ro 162
iel 162
rn 162
text 162
▁1867 162
▁1896 162
▁Jefferson 162
▁Nicholas 162
▁Route 162
▁Salt 162
▁Sex 162
▁Usual 162
▁Whit 162
▁armed 162
▁background 162
▁classification 162
▁gang 162
▁habitat 162
▁snake 162
quin 161
▁Express 161
▁Heritage 161
▁Kill 161
▁Lor 161
▁Luis 161
▁Memorial 161
▁Pip 161
▁Season 161
▁claims 161
▁clothes 161
▁detect 161
▁fluid 161
▁predict 161
▁promot 161
▁republic 161
▁safe 161
▁tie 161
▁titled 161
▁tools 161
PS 160
clo 160
font 160
hausen 160
ori 160
▁1860 160
▁Buck 160
▁Finnish 160
▁Henri 160
▁Race 160
▁bread 160
▁concentration 160
▁elections 160
▁fishing 160
▁management 160
▁parent 160
▁pipe 160
▁plans 160
▁strike 160
▁trie 160
MA 159
ograph 159
zzo 159
▁Chu 159
▁Douglas 159
▁Edmund 159
▁Metal 159
▁Pad 159
▁effective 159
▁subdivision 159
▁wrong 159
ER 158
Ma 158
ali 158
att 158
cla 158
nik 158
oke 158
scope 158
▁1857 158
▁1881 158
▁47 158
▁Baltimore 158
▁Dave 158
▁Economic 158
▁Edinburgh 158
▁Epi 158
▁Hospital 158
▁Jacques 158
▁Kid 158
▁Medal 158
▁Shu 158
▁Unit 158
▁anything 158
▁broken 158
▁conquer 158
▁cousin 158
▁establish 158
▁fellow 158
▁hydr 158
▁magnetic 158
▁measured 158
▁poison 158
▁predator 158
▁representative 158
▁risk 158
▁seal 158
▁southeastern 158
▁survive 158
OC 157
pra 157
▁Atlanta 157
▁Brooklyn 157
▁Chapel 157
▁Joan 157
▁Sara 157
▁Wol 157
▁Wy 157
▁Xbox 157
▁analysis 157
▁easier 157
▁evil 157
▁featuring 157
▁fixed 157
▁marked 157
▁op 157
▁passengers 157
▁tend 157
dio 156
omi 156
una 156
▁1,000 156
▁1861 156
▁Airlines 156
▁Chart 156
▁Constant 156
▁Def 156
▁Ful 156
▁Gill 156
▁Hawk 156
▁Sport 156
▁Stan 156
▁Utah 156
▁blind 156
▁check 156
▁collapse 156
▁colonies 156
▁counter 156
▁crew 156
▁diesel 156
▁drop 156
▁mini 156
▁numerous 156
▁passes 156
▁shift 156
▁successor 156
52 155
band 155
mark 155
rush 155
speaking 155
▁Cleveland 155
▁Drive 155
▁Local 155
▁Moore 155
▁Rou 155
▁Serbia 155
▁aim 155
▁anthem 155
▁newly 155
▁protection 155
▁rating 155
▁reli 155
EA 154
HL 154
cil 154
ential 154
lap 154
western 154
▁Development 154
▁Oliver 154
▁Pier 154
▁Site 154
▁devices 154
▁genera 154
▁march 154
▁monk 154
▁package 154
▁publisher 154
▁tip 154
▁tributar 154
▁visible 154
quest 153
roll 153
test 153
ucci 153
zh 153
▁1893 153
▁1894 153
▁Celtic 153
▁Imp 153
▁Mile 153
▁Mrs 153
▁Organ 153
▁Studios 153
▁UEFA 153
▁boundary 153
▁constitution 153
▁creator 153
▁hir 153
▁lowest 153
▁occurs 153
▁protocol 153
▁prove 153
▁reality 153
▁sort 153
▁ver 153
▁youth 153
RNA 152
issa 152
liga 152
lim 152
path 152
▁44 152
▁Gaelic 152
▁Glen 152
▁Manhattan 152
▁Marco 152
▁Mean 152
▁Oscar 152
▁Rus 152
▁Wel 152
▁additional 152
▁eliminat 152
▁extend 152
▁gray 152
▁legend 152
▁manga 152
▁marine 152
▁officers 152
▁pitch 152
▁preserv 152
▁properties 152
▁sight 152
▁signature 152
▁supposed 152
▁underground 152
▁vehicle 152
▁wire 152
aire 151
ancy 151
bie 151
cious 151
cri 151
pla 151
tech 151
tine 151
▁72 151
▁Barcelona 151
▁Century 151
▁Had 151
▁Horn 151
▁Houston 151
▁Kil 151
▁Marine 151
▁Nelson 151
▁Sid 151
▁calls 151
▁cream 151
▁hundreds 151
▁identified 151
▁lawyer 151
▁reduced 151
▁speaking 151
▁supply 151
hm 150
ova 150
prefecture 150
titude 150
yard 150
▁1.5 150
▁Ernst 150
▁Gam 150
▁Gan 150
▁Giovanni 150
▁Guy 150
▁Hotel 150
▁Leeds 150
▁Shakespeare 150
▁Syn 150
▁Thailand 150
▁arrang 150
▁firm 150
▁gate 150
▁girls 150
▁plea 150
▁powder 150
▁presidential 150
▁processes 150
▁reduce 150
▁stem 150
▁tele 150
cap 149
far 149
▁95 149
▁Alp 149
▁Amazon 149
▁Andrea 149
▁Article 149
▁Bus 149
▁Gray 149
▁Latvia 149
▁Let 149
▁Maryland 149
▁Nicola 149
▁Yoshi 149
▁baby 149
▁concern 149
▁crystal 149
▁disorder 149
▁faster 149
▁feather 149
▁fold 149
▁knowledge 149
▁learning 149
▁load 149
▁sit 149
▁succeed 149
▁vehicles 149
anthrop 148
roy 148
▁Iceland 148
▁Ji 148
▁Legend 148
▁Plain 148
▁Rem 148
▁Slovakia 148
▁choir 148
▁dropped 148
▁existing 148
▁fill 148
▁occasion 148
▁safety 148
▁votes 148
RI 147
face 147
lob 147
night 147
tum 147
▁Edge 147
▁Mozart 147
▁Reform 147
▁Scar 147
▁Stewart 147
▁commander 147
▁equation 147
▁sample 147
▁screen 147
▁seats 147
bell 146
▁Basketball 146
▁Emil 146
▁Gordon 146
▁Marshall 146
▁Pot 146
▁Yellow 146
▁campus 146
▁choice 146
▁download 146
▁expression 146
▁falls 146
▁measurement 146
▁reserve 146
▁senior 146
▁task 146
▁whale 146
BC 145
ace 145
anna 145
gam 145
itor 145
mid 145
▁Ant 145
▁Eagle 145
▁Health 145
▁Iranian 145
▁Junior 145
▁Nova 145
▁Production 145
▁Sciences 145
▁Stand 145
▁Vin 145
▁cable 145
▁critics 145
▁females 145
▁finger 145
▁improv 145
▁individuals 145
▁monument 145
▁quarter 145
▁restor 145
▁roots 145
▁rugby 145
▁whi 145
▁wish 145
0.0 144
ela 144
rank 144
rite 144
▁1878 144
▁49 144
▁Buffalo 144
▁Crown 144
▁Miami 144
▁Military 144
▁Nan 144
▁Nation 144
▁Romanian 144
▁Sacr 144
▁Wat 144
▁anyone 144
▁conference 144
▁exception 144
▁execution 144
▁heir 144
▁neck 144
▁pain 144
▁roads 144
▁storage 144
▁telephone 144
comp 143
gno 143
gran 143
lang 143
present 143
quir 143
rig 143
wide 143
▁1888 143
▁54 143
▁Brothers 143
▁Corps 143
▁FIFA 143
▁Globe 143
▁Leg 143
▁Mega 143
▁Such 143
▁contained 143
▁estimate 143
▁executed 143
▁fifteen 143
▁finding 143
▁hardware 143
▁involve 143
▁mathematical 143
▁myth 143
▁plot 143
▁programme 143
▁review 143
commun 142
direct 142
losing 142
ovich 142
rov 142
▁Bert 142
▁Cent 142
▁Den 142
▁Fat 142
▁Nine 142
▁Rosa 142
▁Train 142
▁creature 142
▁dangerous 142
▁debate 142
▁depending 142
▁egg 142
▁fame 142
▁fertil 142
▁frequently 142
▁inventor 142
▁pack 142
▁rainfall 142
▁rebuil 142
▁recover 142
▁reviews 142
▁statue 142
▁stress 142
▁subsequent 142
▁technique 142
▁traded 142
▁traditionally 142
▁zero 142
smith 141
utonomous 141
ë 141
▁Athens 141
▁Colombia 141
▁Cooper 141
▁Eve 141
▁Horse 141
▁Jimmy 141
▁Jonathan 141
▁Program 141
▁Range 141
▁Record 141
▁chromosome 141
▁coal 141
▁knew 141
▁mechanic 141
▁poems 141
▁reaching 141
▁resort 141
▁saint 141
▁soap 141
▁verse 141
000 140
LA 140
hold 140
kka 140
▁41 140
▁66 140
▁Arctic 140
▁Frankfurt 140
▁Hat 140
▁Ice 140
▁Mongol 140
▁Otto 140
▁Plant 140
▁Urban 140
▁argument 140
▁bull 140
▁cave 140
▁dating 140
▁evening 140
▁municipal 140
▁obtain 140
▁steam 140
eli 139
opter 139
ract 139
▁Bonn 139
▁Link 139
▁Luxembourg 139
▁Rico 139
▁Ruth 139
▁arc 139
▁chemistry 139
▁colonial 139
▁compete 139
▁constituency 139
▁essay 139
▁everything 139
▁existence 139
▁founding 139
▁grave 139
▁hyper 139
▁improve 139
▁lose 139
▁mixture 139
▁opponent 139
ature 138
comb 138
either 138
etta 138
flow 138
▁Add 138
▁Google 138
▁Hamburg 138
▁Queensland 138
▁Report 138
▁Small 138
▁Tin 138
▁athlete 138
▁entrance 138
▁factor 138
▁observ 138
▁prais 138
▁specifically 138
▁thousand 138
▁usage 138
AC 137
aver 137
cover 137
cz 137
pass 137
▁46 137
▁Computer 137
▁Much 137
▁Roosevelt 137
▁Shadow 137
▁Tech 137
▁Technology 137
▁authorities 137
▁branche 137
▁citizens 137
▁divide 137
▁entirely 137
▁erect 137
▁filled 137
▁infect 137
▁lens 137
▁literary 137
▁session 137
▁treat 137
▁unlike 137
OR 136
bir 136
class 136
hua 136
mour 136
range 136
uit 136
▁10,000 136
▁1885 136
▁1897 136
▁2.5 136
▁Amsterdam 136
▁Beat 136
▁Bryan 136
▁Dragon 136
▁Dublin 136
▁Isabel 136
▁Lieutenant 136
▁Serv 136
▁cult 136
▁mining 136
▁officials 136
▁purposes 136
▁regarded 136
▁relat 136
▁severe 136
▁spirit 136
▁sum 136
▁techniques 136
▁treated 136
▁wait 136
SE 135
rou 135
▁Brook 135
▁Design 135
▁Devon 135
▁Ernest 135
▁Guitar 135
▁Hampshire 135
▁Julius 135
▁Mercury 135
▁Oregon 135
▁Read 135
▁actions 135
▁activist 135
▁closer 135
▁distributed 135
▁evolved 135
▁holding 135
▁illegal 135
▁option 135
▁quantum 135
▁quick 135
▁remove 135
▁soldier 135
▁standards 135
▁succeeded 135
▁surrender 135
▁threaten 135
▁till 135
▁trail 135
▁typical 135
▁views 135
▁weigh 135
ably 134
azi 134
bilities 134
diction 134
phon 134
ön 134
▁Blood 134
▁Energy 134
▁Maha 134
▁Sym 134
▁Week 134
▁chairman 134
▁gather 134
▁household 134
▁loan 134
▁respectively 134
▁segment 134
▁vegetable 134
RT 133
eh 133
▁1882 133
▁Esc 133
▁Rights 133
▁Russell 133
▁Wonder 133
▁disaster 133
▁exactly 133
▁favorite 133
▁resources 133
▁sung 133
▁talent 133
▁tunnel 133
▁vertical 133
▁visual 133
FL 132
arn 132
qual 132
rell 132
tical 132
verse 132
ì 132
ín 132
▁52 132
▁800 132
▁Affairs 132
▁Gau 132
▁Grace 132
▁NASA 132
▁Norfolk 132
▁Penn 132
▁Soul 132
▁boys 132
▁chair 132
▁everyone 132
▁herself 132
▁observation 132
▁offices 132
▁solve 132
▁spiritual 132
▁taste 132
IT 131
list 131
yu 131
▁Artist 131
▁DC 131
▁Donald 131
▁Fitz 131
▁Gothic 131
▁Julie 131
▁Leipzig 131
▁Lil 131
▁Venice 131
▁Village 131
▁committee 131
▁exile 131
▁lock 131
▁maintain 131
▁phase 131
▁promotion 131
▁rarely 131
▁resulting 131
▁soundtrack 131
atus 130
dynamic 130
etti 130
evolutionary 130
gni 130
ground 130
▁1886 130
▁Bang 130
▁Bird 130
▁Columbus 130
▁Costa 130
▁Eddie 130
▁Nigeria 130
▁Ober 130
▁Start 130
▁argu 130
▁bassist 130
▁commission 130
▁concentrat 130
▁confused 130
▁encourage 130
▁fear 130
▁gone 130
▁inform 130
▁thirty 130
stream 129
▁Archbishop 129
▁Building 129
▁Cave 129
▁Crusade 129
▁Fab 129
▁Fun 129
▁Gö 129
▁Holland 129
▁Kaz 129
▁Tha 129
▁Trade 129
▁attraction 129
▁banned 129
▁context 129
▁criminal 129
▁crop 129
▁documents 129
▁eighth 129
▁elephant 129
▁entertainment 129
▁fourteen 129
▁inherit 129
▁kg 129
▁opposition 129
▁passing 129
▁patent 129
▁positions 129
▁sword 129
Saxon 128
dding 128
songwriter 128
▁Animal 128
▁Beck 128
▁Craig 128
▁Forbes 128
▁Maine 128
▁Naples 128
▁Planet 128
▁Rule 128
▁Sign 128
▁Software 128
▁Step 128
▁Together 128
▁absorb 128
▁rotation 128
▁scholar 128
▁spacecraft 128
▁supplie 128
▁survived 128
fire 127
mill 127
nick 127
pit 127
style 127
▁1850 127
▁1883 127
▁Croatia 127
▁Food 127
▁Herbert 127
▁Madison 127
▁Orleans 127
▁Our 127
▁Place 127
▁Rev 127
▁Thames 127
▁ballet 127
▁copper 127
▁covering 127
▁gravity 127
▁lap 127
▁necessary 127
▁observed 127
▁prominent 127
▁promote 127
▁proved 127
▁theorem 127
▁violence 127
ID 126
esis 126
game 126
iva 126
lish 126
▁Calvin 126
▁Culture 126
▁Eight 126
▁Georg 126
▁Gilbert 126
▁Ludwig 126
▁Petersburg 126
▁Ryan 126
▁Tel 126
▁Tyr 126
▁Vincent 126
▁blow 126
▁cattle 126
▁migrat 126
▁nothing 126
▁retain 126
▁understand 126
pproved 125
sexual 125
tang 125
▁Alliance 125
▁Marqu 125
▁Maxim 125
▁Morgan 125
▁Sultan 125
▁aid 125
▁breast 125
▁caught 125
▁celebration 125
▁description 125
▁differ 125
▁entry 125
▁gift 125
▁horses 125
▁imagin 125
▁institutions 125
▁loop 125
▁marry 125
▁occupation 125
▁sculpture 125
▁trophy 125
had 124
rock 124
vir 124
word 124
▁1876 124
▁53 124
▁Anglican 124
▁Devil 124
▁José 124
▁Thompson 124
▁Youth 124
▁appearances 124
▁comment 124
▁equivalent 124
▁extreme 124
▁franchise 124
▁journey 124
▁neighbor 124
▁technical 124
▁trained 124
▁volcanic 124
bourne 123
ging 123
gro 123
how 123
▁100,000 123
▁1848 123
▁Abu 123
▁Agency 123
▁Barbara 123
▁Guard 123
▁Historical 123
▁Jar 123
▁Mongolia 123
▁NBC 123
▁Pie 123
▁Southeast 123
▁Stuart 123
▁Vel 123
▁application 123
▁enemy 123
▁expert 123
▁facilit 123
▁instance 123
▁martial 123
▁northeastern 123
▁pit 123
▁rope 123
Star 122
away 122
dissolved 122
▁Buddhism 122
▁Democrat 122
▁Hope 122
▁Johnny 122
▁McL 122
▁Nevada 122
▁Pradesh 122
▁Student 122
▁Victor 122
▁Woman 122
▁advanced 122
▁advantage 122
▁beyond 122
▁details 122
▁expensive 122
▁hunting 122
▁hurt 122
▁opt 122
▁raise 122
▁residents 122
▁sovereign 122
▁spoke 122
▁threat 122
▁tune 122
AS 121
NA 121
ambo 121
bridge 121
ennial 121
▁1862 121
▁Alexandria 121
▁Arena 121
▁Challenge 121
▁Circle 121
▁Grove 121
▁Harvard 121
▁Literature 121
▁Marcel 121
▁Suffolk 121
▁Tiger 121
▁adding 121
▁boundaries 121
▁circulation 121
▁contrast 121
▁crowd 121
▁currency 121
▁foundation 121
▁intended 121
▁journal 121
▁lift 121
▁modul 121
▁northwestern 121
▁prisoners 121
▁prop 121
▁roof 121
▁scheme 121
▁sixteen 121
▁thirteen 121
▁trading 121
▁variation 121
▁vocal 121
DS 120
NC 120
jar 120
▁1830 120
▁1863 120
▁Code 120
▁Ethiopia 120
▁Forces 120
▁Guide 120
▁Mul 120
▁Steel 120
▁Swan 120
▁Transport 120
▁chloride 120
▁feud 120
▁geometry 120
▁rapper 120
▁rode 120
▁slide 120
▁tornado 120
AR 119
PA 119
SU 119
coming 119
iah 119
▁Barry 119
▁Diamond 119
▁Emma 119
▁Former 119
▁Heinrich 119
▁Northwest 119
▁Sussex 119
▁civilian 119
▁dancing 119
▁elect 119
▁extensive 119
▁frame 119
▁initial 119
▁mobile 119
▁net 119
▁pump 119
▁resistance 119
▁ruin 119
▁smooth 119
▁uncle 119
CI 118
jured 118
shaw 118
Ë 118
▁1859 118
▁1887 118
▁81 118
▁98 118
▁Due 118
▁Jason 118
▁Julian 118
▁Nat 118
▁Secret 118
▁Stre 118
▁alliance 118
▁flying 118
▁grade 118
▁imprison 118
▁internet 118
▁rap 118
▁servant 118
▁shelter 118
▁stamp 118
▁thread 118
▁transferred 118
DE 117
elia 117
lab 117
nate 117
read 117
▁1840 117
▁74 117
▁85 117
▁Anderson 117
▁Cameron 117
▁Emirate 117
▁Farm 117
▁Marc 117
▁Panama 117
▁Review 117
▁Ronald 117
▁Terry 117
▁Track 117
▁Venezuela 117
▁childhood 117
▁deposit 117
▁mat 117
▁presence 117
▁producing 117
▁pure 117
▁sodium 117
▁transform 117
▁worth 117
BS 116
igan 116
▁57 116
▁Administration 116
▁Bond 116
▁Buddhist 116
▁Dallas 116
▁Edition 116
▁Merc 116
▁Nature 116
▁Operation 116
▁alongside 116
▁clay 116
▁designat 116
▁diploma 116
▁discuss 116
▁formally 116
▁identity 116
▁injury 116
▁nervous 116
▁pioneer 116
IC 115
mount 115
riv 115
▁77 115
▁Apollo 115
▁DJ 115
▁Dean 115
▁Franc 115
▁Left 115
▁Sicily 115
▁Sony 115
▁Tampa 115
▁Tang 115
▁batt 115
▁conquest 115
▁cow 115
▁determined 115
▁factory 115
▁false 115
▁households 115
▁illness 115
▁influential 115
▁ingredient 115
▁launch 115
▁opposed 115
▁publishing 115
▁regard 115
▁shoe 115
▁spend 115
▁toxic 115
▁weapon 115
▁window 115
AN 114
SC 114
TI 114
ibility 114
piece 114
plan 114
rik 114
spread 114
wise 114
world 114
▁Berkeley 114
▁Command 114
▁Deep 114
▁Heaven 114
▁Hur 114
▁Israeli 114
▁Kirk 114
▁Luke 114
▁Mall 114
▁Ralph 114
▁Santiago 114
▁Sierra 114
▁Slovenia 114
▁Stockholm 114
▁Ukrainian 114
▁animation 114
▁chord 114
▁criticiz 114
▁driving 114
▁highway 114
▁interface 114
▁opinion 114
▁recognize 114
▁reward 114
▁specimen 114
▁tank 114
▁worst 114
eastern 113
pool 113
stand 113
tta 113
▁1877 113
▁56 113
▁Avenue 113
▁Baker 113
▁Beijing 113
▁Dakota 113
▁Estonia 113
▁Gru 113
▁Macedonia 113
▁Population 113
▁Tasmania 113
▁Wright 113
▁academic 113
▁birthday 113
▁charges 113
▁companion 113
▁cricket 113
▁emergency 113
▁enemies 113
▁fastest 113
▁favor 113
▁landscape 113
▁manufacturer 113
▁melt 113
▁nomination 113
▁notably 113
▁prior 113
▁root 113
▁skull 113
▁slope 113
▁smell 113
▁subjects 113
RE 112
amba 112
length 112
ngry 112
oso 112
rr 112
▁1866 112
▁88 112
▁Brother 112
▁Liberal 112
▁Mut 112
▁Ton 112
▁agency 112
▁bound 112
▁fu 112
▁graduate 112
▁latter 112
▁leadership 112
▁loose 112
▁mile 112
▁rebellion 112
▁tongue 112
▁trust 112
LC 111
SI 111
cott 111
ffin 111
▁73 111
▁Different 111
▁Gary 111
▁Gregory 111
▁Harris 111
▁Lauren 111
▁Management 111
▁Universe 111
▁Wayne 111
▁cloth 111
▁documentary 111
▁drawn 111
▁exhibition 111
▁horror 111
▁illustrat 111
▁larva 111
▁lung 111
▁plural 111
▁questions 111
▁telescope 111
leg 110
ulation 110
uzz 110
Û 110
▁Box 110
▁Bud 110
▁Croatian 110
▁Dance 110
▁Data 110
▁Executive 110
▁Gang 110
▁Hudson 110
▁Jamaica 110
▁Keith 110
▁Machine 110
▁Malay 110
▁Movement 110
▁Sheffield 110
▁Thos 110
▁Thunder 110
▁Viking 110
▁automatic 110
▁charged 110
▁dominat 110
▁export 110
▁helping 110
▁laid 110
▁plus 110
▁pupil 110
▁random 110
▁riot 110
▁sponsor 110
▁strongly 110
▁tape 110
▁temporary 110
▁vice 110
▁wooden 110
dimensional 109
raz 109
ê 109
▁1852 109
▁1872 109
▁Carol 109
▁Charlie 109
▁Chuck 109
▁Dai 109
▁Desert 109
▁Deutsche 109
▁Div 109
▁Haz 109
▁Laboratory 109
▁Maj 109
▁Pack 109
▁Pearl 109
▁Professional 109
▁Representatives 109
▁Saudi 109
▁Warsaw 109
▁adaptation 109
▁businessman 109
▁cab 109
▁chapel 109
▁domain 109
▁environmental 109
▁hope 109
▁introduction 109
▁liberal 109
▁logo 109
▁nitr 109
▁representing 109
▁shall 109
▁vector 109
IP 108
aba 108
century 108
link 108
nell 108
psych 108
refore 108
▁600 108
▁Adolf 108
▁Adv 108
▁Athletic 108
▁Bohemia 108
▁Champ 108
▁Dec 108
▁Featur 108
▁Isaac 108
▁Lane 108
▁Lanka 108
▁Ltd 108
▁Psych 108
▁Reserve 108
▁Weather 108
▁Yugoslavia 108
▁artificial 108
▁athletic 108
▁expos 108
▁funeral 108
▁mental 108
▁steal 108
▁suicide 108
empt 107
▁1884 107
▁62 107
▁Bulgaria 107
▁CBS 107
▁Comedy 107
▁Leader 107
▁Murray 107
▁Soccer 107
▁UNESCO 107
▁Walk 107
▁administrator 107
▁amateur 107
▁audio 107
▁celebrate 107
▁coordinat 107
▁database 107
▁decades 107
▁decay 107
▁dimension 107
▁disappear 107
▁exact 107
▁harvest 107
▁horizontal 107
▁listen 107
▁mention 107
▁overseas 107
▁permission 107
▁resist 107
▁spider 107
▁stimul 107
▁subspeci 107
▁update 107
four 106
ía 106
ör 106
▁1869 106
▁Bosnia 106
▁Collins 106
▁Drama 106
▁Lamb 106
▁Neil 106
▁Newfoundland 106
▁Nik 106
▁Richmond 106
▁Side 106
▁_ 106
▁abuse 106
▁determine 106
▁intelligence 106
▁otherwise 106
▁pap 106
▁rang 106
▁rice 106
▁scholars 106
▁sections 106
▁serial 106
▁shrub 106
ST 105
language 105
lé 105
ural 105
▁69 105
▁71 105
▁Alternative 105
▁Carr 105
▁Commander 105
▁Releas 105
▁Trinity 105
▁biological 105
▁cri 105
▁denomination 105
▁desire 105
▁estate 105
▁hide 105
▁knight 105
▁moral 105
▁patron 105
▁pink 105
▁quarterback 105
▁regularly 105
▁shock 105
▁span 105
▁tied 105
▁usual 105
amine 104
bank 104
flu 104
rog 104
Ö 104
▁110 104
▁ABC 104
▁Declaration 104
▁Fantasy 104
▁Fish 104
▁Mann 104
▁Observatory 104
▁Raymond 104
▁Trust 104
▁armies 104
▁citizen 104
▁conservative 104
▁danger 104
▁define 104
▁developer 104
▁factors 104
▁frequency 104
▁installed 104
▁manage 104
▁polar 104
▁policies 104
▁ticket 104
SS 103
ception 103
owski 103
▁0.1 103
▁Cabinet 103
▁Medical 103
▁Penguin 103
▁Vladimir 103
▁apply 103
▁depth 103
▁fil 103
▁fleet 103
▁geographical 103
▁immigrant 103
▁initially 103
▁monastery 103
▁physician 103
▁preach 103
▁ride 103
▁specializ 103
▁temper 103
▁testing 103
▁truck 103
chrom 102
distribut 102
iko 102
iness 102
making 102
mur 102
rose 102
▁1858 102
▁Abraham 102
▁Batman 102
▁Bedford 102
▁Benedict 102
▁Business 102
▁Dodge 102
▁Fen 102
▁Further 102
▁Gui 102
▁Kel 102
▁Kha 102
▁Pink 102
▁Prague 102
▁Regional 102
▁Tai 102
▁Twin 102
▁Where 102
▁agriculture 102
▁balance 102
▁dictat 102
▁diet 102
▁external 102
▁galax 102
▁mistake 102
▁neighborhood 102
▁passage 102
▁stable 102
▁strange 102
▁teachers 102
▁vary 102
▁violent 102
course 101
rift 101
stock 101
▁1868 101
▁1874 101
▁Animat 101
▁Break 101
▁Campbell 101
▁Edgar 101
▁Fleet 101
▁Gospel 101
▁Hugh 101
▁Information 101
▁Leicester 101
▁Next 101
▁Often 101
▁Ottawa 101
▁Raj 101
▁Robin 101
▁Somerset 101
▁Thor 101
▁aged 101
▁alter 101
▁begun 101
▁categories 101
▁contributions 101
▁educated 101
▁equi 101
▁hidden 101
▁intensity 101
▁manufactur 101
▁purchas 101
▁romantic 101
▁spa 101
▁symptom 101
▁tale 101
▁travell 101
▁vocalist 101
elected 100
▁1873 100
▁AC 100
▁Actor 100
▁Alberta 100
▁Bermuda 100
▁Comics 100
▁Corr 100
▁Crow 100
▁Intelligence 100
▁Nixon 100
▁Parker 100
▁Past 100
▁Serbian 100
▁Siberia 100
▁Studies 100
▁Thursday 100
▁Warren 100
▁affairs 100
▁beating 100
▁boot 100
▁demonstrat 100
▁detail 100
▁greatly 100
▁heavily 100
▁lover 100
▁mask 100
▁massive 100
▁operator 100
▁psychology 100
▁ratio 100
▁rubber 100
▁rush 100
▁scar 100
▁seek 100
▁trait 100
▁vertebra 100
WA 99
ovsky 99
▁1871 99
▁Along 99
▁Cyril 99
▁Episode 99
▁Fel 99
▁Hunter 99
▁Independent 99
▁Labour 99
▁Low 99
▁Oak 99
▁Political 99
▁Surrey 99
▁Windsor 99
▁Worcester 99
▁afterward 99
▁archive 99
▁attend 99
▁convention 99
▁decade 99
▁grain 99
▁happy 99
▁meteor 99
▁missing 99
▁rebel 99
▁residence 99
▁triangle 99
▁vision 99
▁visitors 99
fusion 98
▁1854 98
▁1864 98
▁83 98
▁Leopold 98
▁Limited 98
▁Nathan 98
▁Rice 98
▁Travel 98
▁Yankee 98
▁acquir 98
▁adopt 98
▁alive 98
▁assign 98
▁beauty 98
▁breath 98
▁calling 98
▁contestant 98
▁crater 98
▁destination 98
▁discussion 98
▁efforts 98
▁emerg 98
▁explosion 98
▁followers 98
▁golden 98
▁icon 98
▁imperial 98
▁knock 98
▁legislature 98
▁purple 98
▁select 98
▁sole 98
▁tenth 98
asso 97
ducted 97
ière 97
some 97
▁2,000 97
▁Admiral 97
▁Cornell 97
▁Engineering 97
▁Eye 97
▁Freedom 97
▁Laura 97
▁Physics 97
▁Shak 97
▁Stefan 97
▁Tyler 97
▁Vegas 97
▁Yan 97
▁arrest 97
▁bay 97
▁beetle 97
▁grandfather 97
▁grandson 97
▁kick 97
▁modified 97
▁owners 97
▁pastor 97
▁pitcher 97
▁resolution 97
▁survey 97
mund 96
span 96
▁99 96
▁Aero 96
▁Bueno 96
▁CE 96
▁Clay 96
▁Discovery 96
▁Lebanon 96
▁Mou 96
▁Round 96
▁Similar 96
▁Still 96
▁Studio 96
▁arrangement 96
▁defence 96
▁dream 96
▁duo 96
▁fighter 96
▁fin 96
▁incident 96
▁increasing 96
▁memorial 96
▁monster 96
▁pocket 96
▁proof 96
▁revolt 96
▁volunteer 96
Connor 95
called 95
jur 95
walk 95
Ú 95
▁Alpha 95
▁Azerbaijan 95
▁Canal 95
▁Circuit 95
▁Control 95
▁Crystal 95
▁Felix 95
▁Fernando 95
▁Marcus 95
▁Mik 95
▁Prefecture 95
▁Sebastian 95
▁Section 95
▁Theodore 95
▁Valencia 95
▁accompani 95
▁cabinet 95
▁controversy 95
▁crossing 95
▁descent 95
▁describ 95
▁destruction 95
▁entitled 95
▁finishing 95
▁incorporated 95
▁lifetime 95
▁nest 95
▁performer 95
▁playwright 95
▁progress 95
▁remnant 95
▁rotat 95
▁smoke 95
▁upgrad 95
▁windows 95
ET 94
RO 94
anga 94
load 94
mission 94
ush 94
vit 94
▁58 94
▁Grant 94
▁Kai 94
▁Lucas 94
▁Officer 94
▁Rugby 94
▁Take 94
▁Uruguay 94
▁abolished 94
▁advance 94
▁agricultural 94
▁ahead 94
▁benefit 94
▁bronze 94
▁conservation 94
▁headed 94
▁moth 94
▁neutral 94
▁ninth 94
▁occasionally 94
▁originated 94
▁personality 94
▁regime 94
▁struck 94
▁sulfur 94
▁trace 94
▁wearing 94
▁weekend 94
,200 93
IM 93
fil 93
▁1851 93
▁1853 93
▁Aaron 93
▁Antwerp 93
▁Brighton 93
▁Bristol 93
▁Chronicle 93
▁Nikola 93
▁Recent 93
▁Rural 93
▁Test 93
▁Tommy 93
▁Victorian 93
▁altitude 93
▁calculate 93
▁communicat 93
▁deliver 93
▁disturb 93
▁fifty 93
▁integer 93
▁median 93
▁repeated 93
▁rifle 93
▁rub 93
▁shark 93
▁understanding 93
100 92
hat 92
market 92
term 92
▁101 92
▁Andy 92
▁Bio 92
▁Blu 92
▁CO 92
▁Calgary 92
▁Cemetery 92
▁FA 92
▁Faith 92
▁Female 92
▁Magic 92
▁Slovak 92
▁Stein 92
▁Through 92
▁Warrior 92
▁XVI 92
▁abortion 92
▁achievement 92
▁airplane 92
▁anniversary 92
▁coalition 92
▁copyright 92
▁delay 92
▁expedition 92
▁fail 92
▁fundamental 92
▁hypothesis 92
▁jet 92
▁linguistic 92
▁mainstream 92
▁molecular 92
▁nephew 92
▁practical 92
▁publication 92
▁publish 92
▁raid 92
▁retail 92
▁supporters 92
▁tract 92
▁unable 92
aged 91
capable 91
jun 91
lick 91
member 91
profit 91
uru 91
vre 91
▁700 91
▁96 91
▁Audi 91
▁Comb 91
▁Electronic 91
▁Future 91
▁Grim 91
▁Hundred 91
▁Lisa 91
▁NY 91
▁Principal 91
▁Rush 91
▁Scandinavia 91
▁Sudan 91
▁achieved 91
▁budget 91
▁constellation 91
▁controversial 91
▁critic 91
▁delivered 91
▁entertain 91
▁gradual 91
▁housing 91
▁invest 91
▁leaf 91
▁loud 91
▁planning 91
▁secure 91
▁sediment 91
▁shallow 91
▁shield 91
▁teenager 91
▁tourism 91
▁voting 91
AF 90
action 90
chang 90
holder 90
phosph 90
vari 90
▁1856 90
▁Fisher 90
▁Flight 90
▁Harold 90
▁Honor 90
▁Manitoba 90
▁Model 90
▁Orlando 90
▁Pedro 90
▁Prison 90
▁Publish 90
▁Scout 90
▁Somali 90
▁Stoke 90
▁Turn 90
▁Wesley 90
▁artistic 90
▁bottle 90
▁bringing 90
▁carrying 90
▁cotton 90
▁error 90
▁glacier 90
▁golf 90
▁harbor 90
▁identical 90
▁junior 90
▁massacre 90
▁mature 90
▁mount 90
▁percussion 90
▁replacement 90
▁runner 90
▁secretary 90
▁sheet 90
▁skills 90
▁steep 90
▁theories 90
▁thermal 90
▁trap 90
AM 89
NI 89
kha 89
rav 89
▁1841 89
▁Chen 89
▁Khal 89
▁Normandy 89
▁Traditional 89
▁USSR 89
▁advice 89
▁chest 89
▁doctrine 89
▁don 89
▁essential 89
▁guilty 89
▁leather 89
▁manner 89
▁manuscript 89
▁neighbour 89
▁portrait 89
▁ready 89
▁rejected 89
▁restrict 89
▁somewhat 89
▁trouble 89
▁trumpet 89
▁voltage 89
atta 88
force 88
hour 88
while 88
▁1849 88
▁61 88
▁68 88
▁Allied 88
▁Block 88
▁Confederate 88
▁Dubai 88
▁Floyd 88
▁Hammer 88
▁Jerem 88
▁Large 88
▁Maz 88
▁Multi 88
▁Perry 88
▁acres 88
▁charter 88
▁corn 88
▁decline 88
▁dense 88
▁digit 88
▁drain 88
▁dynamic 88
▁fired 88
▁gay 88
▁hypo 88
▁ideal 88
▁interval 88
▁premier 88
▁provision 88
▁rear 88
▁sale 88
PC 87
dell 87
duced 87
én 87
▁Beth 87
▁Eventual 87
▁Fund 87
▁Highland 87
▁Justin 87
▁Kun 87
▁Manuel 87
▁Mikhail 87
▁View 87
▁burial 87
▁continuous 87
▁institution 87
▁locations 87
▁mechanism 87
▁minimum 87
▁minute 87
▁naval 87
▁patients 87
▁promise 87
▁settlers 87
▁struggle 87
▁veteran 87
▁warrior 87
▁wealth 87
DP 86
flex 86
nova 86
season 86
▁1875 86
▁Abdul 86
▁Ahmad 86
▁Boeing 86
▁Cologne 86
▁Denis 86
▁Evans 86
▁Gloucester 86
▁Krist 86
▁Revolutionary 86
▁Spencer 86
▁Todd 86
▁Voice 86
▁Xi 86
▁administer 86
▁afternoon 86
▁anchor 86
▁basin 86
▁briefly 86
▁components 86
▁contemporary 86
▁decrease 86
▁demo 86
▁depict 86
▁guns 86
▁implement 86
▁inhabit 86
▁lectur 86
▁loyal 86
▁moderate 86
▁neuro 86
▁ordinary 86
▁promis 86
▁repair 86
▁rising 86
▁turning 86
▁twist 86
▁variable 86
power 85
went 85
▁1846 85
▁1847 85
▁78 85
▁Aboriginal 85
▁Algeria 85
▁Kenya 85
▁Malcolm 85
▁Market 85
▁Municipal 85
▁Newcastle 85
▁Prior 85
▁Writer 85
▁accused 85
▁alien 85
▁belonging 85
▁conclud 85
▁coup 85
▁elder 85
▁investigat 85
▁legendar 85
▁merchant 85
▁monitor 85
▁progressive 85
▁rabbi 85
▁ranking 85
▁renew 85
▁stood 85
▁successfully 85
▁tire 85
▁transportation 85
RS 84
buck 84
lift 84
operative 84
▁Authority 84
▁Belarus 84
▁Bomb 84
▁Canterbury 84
▁Confederation 84
▁Daily 84
▁FI 84
▁Haut 84
▁Meta 84
▁Nottingham 84
▁Rapid 84
▁Ridge 84
▁Sparta 84
▁Universit 84
▁Wallace 84
▁Wu 84
▁blade 84
▁bowl 84
▁concrete 84
▁deck 84
▁economist 84
▁efficient 84
▁engrav 84
▁integr 84
▁involving 84
▁latest 84
▁plum 84
▁proclaim 84
▁reputation 84
▁supporting 84
▁surprise 84
▁terrorist 84
▁victims 84
NO 83
SP 83
determin 83
hir 83
related 83
train 83
▁59 83
▁84 83
▁Cameroon 83
▁Chairman 83
▁Chelsea 83
▁Collection 83
▁Congo 83
▁Construction 83
▁Digital 83
▁Gallery 83
▁Ground 83
▁Jazz 83
▁Lancashire 83
▁Oslo 83
▁Scotia 83
▁Talk 83
▁Title 83
▁Tuesday 83
▁Ward 83
▁Watson 83
▁assist 83
▁attempts 83
▁cash 83
▁charity 83
▁chip 83
▁committed 83
▁constitutional 83
▁encounter 83
▁extract 83
▁fee 83
▁functional 83
▁probability 83
▁remote 83
▁ruling 83
▁schedul 83
▁strain 83
▁turtle 83
izz 82
orient 82
wen 82
ww 82
▁Access 82
▁Essex 82
▁Eugene 82
▁Fuji 82
▁Global 82
▁Montana 82
▁Nancy 82
▁Portland 82
▁Return 82
▁Staff 82
▁absolute 82
▁accelerat 82
▁alternate 82
▁appeal 82
▁correspond 82
▁evacuat 82
▁exercise 82
▁kit 82
▁measures 82
▁nurse 82
▁optical 82
▁retirement 82
▁societies 82
▁spiral 82
▁statistical 82
▁virtual 82
ED 81
esh 81
▁Cloud 81
▁Contest 81
▁Cornwall 81
▁Danny 81
▁Ecuador 81
▁Found 81
▁Janeiro 81
▁Lloyd 81
▁Mix 81
▁Owen 81
▁Peak 81
▁Services 81
▁Stage 81
▁Thai 81
▁chicken 81
▁disagree 81
▁educational 81
▁honorar 81
▁minority 81
▁navy 81
▁pregnan 81
▁robot 81
▁sitcom 81
▁spectrum 81
▁theatre 81
▁tru 81
▁wider 81
aku 80
cession 80
color 80
scape 80
understood 80
▁2012 80
▁63 80
▁Case 80
▁Chester 80
▁Delaware 80
▁Denver 80
▁Fellow 80
▁Helsinki 80
▁Indonesian 80
▁Mercedes 80
▁NASCAR 80
▁Nashville 80
▁Right 80
▁Spider 80
▁Sweet 80
▁Transit 80
▁bag 80
▁communist 80
▁compris 80
▁contributed 80
▁crack 80
▁earn 80
▁eighteen 80
▁interrupt 80
▁layout 80
▁lord 80
▁membrane 80
▁mirror 80
▁prepared 80
▁puppet 80
▁railroad 80
▁register 80
▁registered 80
▁scatter 80
▁shooting 80
▁structural 80
▁synthesis 80
▁transition 80
▁trick 80
space 79
take 79
× 79
▁AM 79
▁Baldwin 79
▁Campaign 79
▁EU 79
▁Flower 79
▁Gerald 79
▁Helm 79
▁Julia 79
▁Larry 79
▁Lock 79
▁Lombard 79
▁Strong 79
▁Twenty 79
▁bid 79
▁borrow 79
▁brief 79
▁cemetery 79
▁cheap 79
▁collision 79
▁democracy 79
▁efficiency 79
▁effort 79
▁familiar 79
▁gap 79
▁heaven 79
▁industries 79
▁lessons 79
▁licens 79
▁proportion 79
▁revis 79
▁swimming 79
▁withdraw 79
▁| 79
fir 78
scale 78
▁1855 78
▁Blanc 78
▁Constantinople 78
▁Delhi 78
▁Hughes 78
▁Morocco 78
▁Nebraska 78
▁Negro 78
▁Sanskrit 78
▁Theater 78
▁Turner 78
▁Walker 78
▁abandoned 78
▁advertising 78
▁bath 78
▁exclusive 78
▁flash 78
▁friendly 78
▁gauge 78
▁honey 78
▁humor 78
▁identify 78
▁jersey 78
▁laboratory 78
▁mall 78
▁measur 78
▁nerve 78
▁none 78
▁platinum 78
▁publicly 78
▁shrine 78
▁signing 78
▁strict 78
▁tiny 78
▁unre 78
HS 77
ffer 77
symmetric 77
Ê 77
▁Albany 77
▁Blair 77
▁Broadway 77
▁Copenhagen 77
▁Czechoslovakia 77
▁Document 77
▁Durham 77
▁Jennifer 77
▁Libya 77
▁Mobile 77
▁Performance 77
▁Roy 77
▁Seoul 77
▁acoustic 77
▁advertisement 77
▁armor 77
▁challeng 77
▁cluster 77
▁duties 77
▁employees 77
▁execut 77
▁grape 77
▁hub 77
▁humid 77
▁interpret 77
▁multipli 77
▁panel 77
▁primitive 77
▁respond 77
▁sustain 77
▁truth 77
AL 76
TS 76
aj 76
cellular 76
south 76
▁67 76
▁Adult 76
▁Bachelor 76
▁Charter 76
▁Cincinnati 76
▁Ghost 76
▁Guatemala 76
▁Guild 76
▁Holl 76
▁Honour 76
▁Martha 76
▁Rabbi 76
▁Wang 76
▁Without 76
▁achieve 76
▁assembly 76
▁clip 76
▁faced 76
▁hind 76
▁ignor 76
▁justice 76
▁miss 76
▁naming 76
▁offensive 76
▁realize 76
▁sculptor 76
▁siege 76
▁visiting 76
DI 75
Italia 75
cross 75
shore 75
tempo 75
wind 75
▁Agreement 75
▁Beverly 75
▁Competition 75
▁Continental 75
▁Cruz 75
▁Edmonton 75
▁Hydro 75
▁Indianapolis 75
▁Morning 75
▁Panther 75
▁Reagan 75
▁Ship 75
▁Thus 75
▁Wyoming 75
▁abstract 75
▁algebra 75
▁apartment 75
▁arrival 75
▁brew 75
▁concerned 75
▁cuisine 75
▁democratic 75
▁dorm 75
▁dual 75
▁enzyme 75
▁fault 75
▁float 75
▁grandmother 75
▁invention 75
▁receiving 75
▁relief 75
▁rooms 75
▁sharing 75
▁skeleton 75
▁slavery 75
▁stroke 75
▁surgery 75
▁triple 75
▁wedding 75
▁wheat 75
▁widow 75
dependent 74
ledge 74
park 74
▁Chand 74
▁Commissioner 74
▁Harbour 74
▁Jessica 74
▁Kingston 74
▁Marvel 74
▁Mitchell 74
▁Sikh 74
▁Source 74
▁Within 74
▁accidental 74
▁admitted 74
▁authentic 74
▁cargo 74
▁champions 74
▁combine 74
▁eagle 74
▁falling 74
▁hearing 74
▁maintained 74
▁marsh 74
▁mascot 74
▁offering 74
▁organize 74
▁photographer 74
▁prefer 74
▁presidency 74
▁recognition 74
▁reject 74
▁resemble 74
▁sector 74
▁seiz 74
▁stab 74
▁thanks 74
▁tight 74
▁transmitt 74
▁tribal 74
▁valid 74
▁width 74
GA 73
SL 73
gotten 73
ifying 73
militar 73
product 73
▁76 73
▁Bloom 73
▁Cricket 73
▁Dennis 73
▁Deputy 73
▁Mission 73
▁Montgomery 73
▁NCAA 73
▁Rama 73
▁Sig 73
▁Stanford 73
▁Study 73
▁Wednesday 73
▁accurate 73
▁competitor 73
▁courses 73
▁diagnos 73
▁doubt 73
▁drove 73
▁embedded 73
▁exhibit 73
▁hymn 73
▁instant 73
▁qualified 73
▁revolutionar 73
▁riding 73
▁rocket 73
▁sensor 73
▁settl 73
▁stomach 73
▁suitabl 73
▁transmission 73
▁velocity 73
▁verb 73
The 72
foot 72
gil 72
ogue 72
rage 72
rri 72
▁79 72
▁Andre 72
▁Author 72
▁Cairo 72
▁Herzegovina 72
▁Maurice 72
▁Memphis 72
▁Normal 72
▁Rachel 72
▁SC 72
▁Scots 72
▁Trent 72
▁brick 72
▁combat 72
▁customers 72
▁embryo 72
▁fabric 72
▁percentage 72
▁precise 72
▁ritual 72
▁supervis 72
▁universal 72
▁wound 72
group 71
hom 71
hurst 71
third 71
▁Exchange 71
▁Jesse 71
▁Judaism 71
▁Look 71
▁Rang 71
▁Springfield 71
▁Statistical 71
▁Style 71
▁Wool 71
▁bullet 71
▁characterized 71
▁dying 71
▁elde 71
▁extent 71
▁gross 71
▁hence 71
▁hung 71
▁intellectual 71
▁interaction 71
▁interior 71
▁jail 71
▁magnet 71
▁manufacturing 71
▁merger 71
▁nineteenth 71
▁phil 71
▁pilgrim 71
▁preparation 71
▁psychiatri 71
▁recommended 71
▁reporter 71
▁taxes 71
▁trademark 71
▁valuable 71
▁voyage 71
▁wore 71
eater 70
grove 70
shot 70
wyn 70
Õ 70
▁86 70
▁Arsenal 70
▁Brisbane 70
▁Bulgarian 70
▁CEO 70
▁Cecil 70
▁Chapter 70
▁Eurovision 70
▁Fine 70
▁Holocaust 70
▁Industrial 70
▁Mack 70
▁Technical 70
▁Valentin 70
▁attribut 70
▁corporation 70
▁crosses 70
▁default 70
▁elevat 70
▁establishment 70
▁explanation 70
▁gall 70
▁hid 70
▁ibn 70
▁insurance 70
▁intense 70
▁investigation 70
▁nitrogen 70
▁outbreak 70
▁persuad 70
▁puzzle 70
▁sociolog 70
▁tap 70
▁throat 70
▁topics 70
▁viewers 70
,800 69
MP 69
izer 69
utter 69
written 69
▁Chemistry 69
▁Crime 69
▁Generation 69
▁Lyon 69
▁MA 69
▁Protect 69
▁Salvador 69
▁Workers 69
▁antenna 69
▁buses 69
▁careful 69
▁consumer 69
▁dramatic 69
▁drown 69
▁earning 69
▁elevation 69
▁generate 69
▁honour 69
▁introduce 69
▁mild 69
▁pirate 69
▁referee 69
▁scholarship 69
▁scoring 69
building 68
▁1,2 68
▁Adelaide 68
▁Baroque 68
▁Blake 68
▁Broadcasting 68
▁Brussels 68
▁Buddha 68
▁Colonel 68
▁Communication 68
▁Crawford 68
▁Golf 68
▁Grammar 68
▁Harvey 68
▁Liberty 68
▁Shore 68
▁Southampton 68
▁Tanzania 68
▁Trail 68
▁absence 68
▁assault 68
▁ceremonies 68
▁compil 68
▁compilation 68
▁endanger 68
▁hitting 68
▁investment 68
▁kidnapp 68
▁metre 68
▁modification 68
▁organisation 68
▁participated 68
▁possession 68
▁punishment 68
▁representation 68
▁screenwriter 68
CP 67
HA 67
brand 67
wolf 67
▁Adrian 67
▁Attorney 67
▁Cultural 67
▁Double 67
▁Hold 67
▁Manager 67
▁Wheel 67
▁abbey 67
▁advis 67
▁captiv 67
▁carriage 67
▁commemorat 67
▁compact 67
▁criticism 67
▁cutting 67
▁delegate 67
▁empty 67
▁exceed 67
▁exit 67
▁explosive 67
▁fled 67
▁fund 67
▁isolated 67
▁jewel 67
▁joke 67
▁oxidation 67
▁pleasure 67
▁preferr 67
▁presentation 67
▁pub 67
▁quantity 67
▁sacred 67
▁sponsored 67
▁storyline 67
▁syndrome 67
▁terminal 67
▁textile 67
DC 66
election 66
hum 66
ility 66
▁0.5 66
▁Airways 66
▁Beginning 66
▁Corp 66
▁Idol 66
▁Miguel 66
▁Obama 66
▁Perform 66
▁Places 66
▁Plymouth 66
▁Vatican 66
▁Vermont 66
▁Winston 66
▁annually 66
▁archaeological 66
▁assassination 66
▁audition 66
▁clan 66
▁component 66
▁costume 66
▁diagram 66
▁dominant 66
▁girlfriend 66
▁heritage 66
▁knee 66
▁outdoor 66
▁payment 66
▁profit 66
▁subsidiary 66
▁surname 66
▁swim 66
▁theoretical 66
▁trend 66
▁victories 66
borne 65
national 65
scribed 65
▁Additional 65
▁Finance 65
▁IBM 65
▁Josh 65
▁Klein 65
▁Manila 65
▁Montenegro 65
▁Philosophy 65
▁Portsmouth 65
▁Volume 65
▁Yang 65
▁amongst 65
▁chronic 65
▁debt 65
▁experimental 65
▁impossible 65
▁index 65
▁interact 65
▁mutual 65
▁peaked 65
▁retreat 65
▁skill 65
▁smart 65
▁suddenly 65
▁turbine 65
▁variant 65
borg 64
hroughout 64
rim 64
versus 64
writer 64
▁Caroline 64
▁Duncan 64
▁Faculty 64
▁Ghana 64
▁Giants 64
▁Kenneth 64
▁NATO 64
▁Pick 64
▁Popular 64
▁Support 64
▁Wizard 64
▁argue 64
▁autobiography 64
▁boss 64
▁contribut 64
▁curv 64
▁curve 64
▁cyclist 64
▁donat 64
▁ecosystem 64
▁farmers 64
▁hatch 64
▁infant 64
▁installation 64
▁instrumental 64
▁phenomenon 64
▁procedure 64
▁psychological 64
▁purchase 64
▁regulation 64
▁strategy 64
▁suspended 64
▁wealthy 64
▁wool 64
▁wounded 64
CO 63
LS 63
engaged 63
evich 63
fest 63
figur 63
front 63
ña 63
▁Bombay 63
▁Coach 63
▁Election 63
▁HMS 63
▁Harbor 63
▁Indies 63
▁Lancaster 63
▁Lutheran 63
▁Mine 63
▁Minneapolis 63
▁Nepal 63
▁Transportation 63
▁Visit 63
▁abroad 63
▁affair 63
▁agencies 63
▁bicycle 63
▁complicat 63
▁conversion 63
▁convince 63
▁cultivat 63
▁declin 63
▁excellent 63
▁filter 63
▁hormone 63
▁indigenous 63
▁interpretation 63
▁parliamentary 63
▁provincial 63
▁regiment 63
▁rider 63
▁schedule 63
▁subfamily 63
▁swamp 63
▁tension 63
▁unofficial 63
▁vegetation 63
TE 62
onym 62
▁Falcon 62
▁Istanbul 62
▁Raja 62
▁Room 62
▁Sleep 62
▁Typical 62
▁Writing 62
▁Yale 62
▁autumn 62
▁carrier 62
▁clergy 62
▁condemn 62
▁consecutive 62
▁costs 62
▁crisis 62
▁crush 62
▁defensive 62
▁distinctive 62
▁examin 62
▁grammar 62
▁infrastructure 62
▁membership 62
▁pseudo 62
▁racial 62
▁radical 62
▁rent 62
▁researchers 62
▁separation 62
▁shopping 62
▁trunk 62
▁ultra 62
AP 61
clusive 61
releasing 61
▁91 61
▁Actress 61
▁Galaxy 61
▁Grave 61
▁Institution 61
▁Naval 61
▁Present 61
▁Solomon 61
▁Syrian 61
▁Thorn 61
▁alleged 61
▁ambassador 61
▁annex 61
▁appropriate 61
▁approval 61
▁chassis 61
▁decoration 61
▁hybrid 61
▁improvement 61
▁limestone 61
▁minimal 61
▁motorcycle 61
▁odd 61
▁psycho 61
▁responsibilit 61
▁shipping 61
▁stolen 61
▁venue 61
CT 60
eiro 60
▁82 60
▁Branch 60
▁Circ 60
▁Cyprus 60
▁Doug 60
▁Environment 60
▁Judge 60
▁Kuwait 60
▁PA 60
▁Scientific 60
▁Screen 60
▁Speedway 60
▁Tunisia 60
▁Ultimate 60
▁Winnipeg 60
▁acclaim 60
▁apparent 60
▁archaeolog 60
▁calcium 60
▁cinema 60
▁deputy 60
▁distinction 60
▁enclos 60
▁ensure 60
▁epic 60
▁grid 60
▁hook 60
▁precede 60
▁preserve 60
▁shaft 60
▁territorial 60
▁theatrical 60
▁twentieth 60
control 59
half 59
store 59
▁Armstrong 59
▁Belfast 59
▁Citizen 59
▁Fraser 59
▁Glenn 59
▁Historic 59
▁Kazakhstan 59
▁Stafford 59
▁cardinal 59
▁finance 59
▁frog 59
▁habit 59
▁iTunes 59
▁import 59
▁licence 59
▁margin 59
▁ministry 59
▁motto 59
▁narrat 59
▁partnership 59
▁prepare 59
▁realiz 59
▁relation 59
▁remix 59
▁suffering 59
▁synthetic 59
▁witness 59
▁worse 59
.00 58
llusion 58
plane 58
▁Albania 58
▁Brunswick 58
▁Cliff 58
▁Concord 58
▁Curtis 58
▁Ellen 58
▁Folk 58
▁Rap 58
▁Smok 58
▁Tir 58
▁aspects 58
▁bore 58
▁circum 58
▁cliff 58
▁discipline 58
▁emotion 58
▁exclud 58
▁facing 58
▁freshwater 58
▁indoor 58
▁intention 58
▁landing 58
▁losses 58
▁mere 58
▁overthrow 58
▁partially 58
▁peaceful 58
▁peer 58
▁polymer 58
▁pregnancy 58
▁proposal 58
▁radar 58
▁recipient 58
▁reinforc 58
▁repeat 58
▁timber 58
2,2 57
SR 57
dvisory 57
fallen 57
league 57
▁Ballet 57
▁Basin 57
▁Bha 57
▁Capitol 57
▁Enterprise 57
▁Happy 57
▁Hopkins 57
▁Leslie 57
▁Rah 57
▁apprentice 57
▁arrondissement 57
▁bold 57
▁consistent 57
▁craft 57
▁cyto 57
▁dissolve 57
▁emotional 57
▁fitted 57
▁focuse 57
▁freight 57
▁furniture 57
▁generated 57
▁legislative 57
▁lifestyle 57
▁lyric 57
▁melodi 57
▁penalty 57
▁posthumous 57
▁poverty 57
▁robb 57
▁seventeen 57
▁suspect 57
▁terrestrial 57
▁tiger 57
▁turbo 57
# 56
; 56
flew 56
ça 56
▁André 56
▁Bolivia 56
▁Budapest 56
▁Heights 56
▁Oakland 56
▁Quarter 56
▁Regiment 56
▁SR 56
▁Strike 56
▁Treasury 56
▁barrier 56
▁biography 56
▁blog 56
▁ceramic 56
▁conserv 56
▁contend 56
▁friendship 56
▁genome 56
▁grey 56
▁insert 56
▁junction 56
▁obvious 56
▁patient 56
▁referendum 56
▁sacrifice 56
▁shadow 56
▁specifi 56
▁submarine 56
▁unsuccessful 56
▁vessels 56
▁welcome 56
america 55
bound 55
ño 55
▁Broad 55
▁Defence 55
▁Industry 55
▁Jesuit 55
▁McKi 55
▁Myanmar 55
▁Palestinian 55
▁Pioneer 55
▁Rafael 55
▁Store 55
▁advisor 55
▁altar 55
▁announcement 55
▁closing 55
▁coverage 55
▁diverse 55
▁downtown 55
▁fragment 55
▁helicopter 55
▁increasingly 55
▁injuries 55
▁interchange 55
▁kidney 55
▁marble 55
▁missile 55
▁occupy 55
▁penetrat 55
▁possess 55
▁premiere 55
▁receiver 55
▁technologies 55
▁undergo 55
cliffe 54
government 54
valu 54
▁Elliot 54
▁Liberation 54
▁Notable 54
▁Primary 54
▁Survey 54
▁Watch 54
▁Zimbabwe 54
▁adjust 54
▁believ 54
▁consequence 54
▁corps 54
▁decreas 54
▁diversity 54
▁dozen 54
▁entity 54
▁immediate 54
▁kiss 54
▁knife 54
▁libraries 54
▁ownership 54
▁possibility 54
▁prosecut 54
▁punish 54
▁pyramid 54
▁remake 54
▁resembl 54
▁restriction 54
▁rot 54
▁senator 54
▁sketch 54
▁synonym 54
▁tobacco 54
▁transit 54
00,000 53
lateral 53
released 53
wheel 53
· 53
Á 53
▁Bronze 53
▁Chrys 53
▁Clement 53
▁FBI 53
▁Gandhi 53
▁MLB 53
▁Nacional 53
▁Railroad 53
▁Singh 53
▁addict 53
▁assistance 53
▁beaten 53
▁ceiling 53
▁flame 53
▁funds 53
▁ghost 53
▁hometown 53
▁initiat 53
▁involvement 53
▁necessari 53
▁oppos 53
▁pretend 53
▁profile 53
▁protagonist 53
▁publications 53
▁spending 53
▁stall 53
▁suspension 53
▁systematic 53
▁township 53
▁yards 53
PI 52
high 52
plicat 52
source 52
▁Carnegie 52
▁Carroll 52
▁Catalan 52
▁Cuban 52
▁Dev 52
▁Direct 52
▁Dorothy 52
▁Holmes 52
▁Palestine 52
▁Paraguay 52
▁Siege 52
▁Tennis 52
▁Unfortunate 52
▁appoint 52
▁blank 52
▁broadcasting 52
▁consonant 52
▁decorated 52
▁exam 52
▁exposure 52
▁funding 52
▁intelligent 52
▁landmark 52
▁luxury 52
▁patch 52
▁philosophical 52
▁portray 52
▁secular 52
▁sitting 52
▁substitute 52
▁sudden 52
▁supplied 52
▁trigger 52
7.5 51
compatible 51
keeper 51
regulat 51
▁Angola 51
▁Architecture 51
▁Conservation 51
▁Gibson 51
▁Harper 51
▁Mathematics 51
▁Milwaukee 51
▁Murphy 51
▁Preston 51
▁Scholar 51
▁Senior 51
▁Twelve 51
▁Upon 51
▁Uttar 51
▁assumed 51
▁carve 51
▁commentator 51
▁commut 51
▁corresponding 51
▁derive 51
▁drew 51
▁frequent 51
▁globe 51
▁gymnast 51
▁institute 51
▁integrated 51
▁legislation 51
▁mysterious 51
▁raising 51
▁reducing 51
▁render 51
▁revenge 51
▁reverse 51
▁rumor 51
▁significance 51
▁spectator 51
▁stuff 51
▁transformation 51
▁villain 51
boat 50
children 50
guard 50
physiolog 50
writing 50
ï 50
▁Davies 50
▁Ellis 50
▁Index 50
▁Kosovo 50
▁Lisbon 50
▁Locat 50
▁Oblast 50
▁Shield 50
▁Vietnamese 50
▁Wellington 50
▁bonus 50
▁cavalry 50
▁conventional 50
▁elementary 50
▁explore 50
▁flee 50
▁harsh 50
▁nobility 50
▁participant 50
▁peripher 50
▁recreation 50
▁replica 50
▁reside 50
▁reviv 50
▁revival 50
▁sufficient 50
▁trapped 50
▁vast 50
▁workshop 50
after 49
raj 49
zhou 49
▁Canyon 49
▁Mull 49
▁Saskatchewan 49
▁Serie 49
▁align 49
▁ancestry 49
▁defender 49
▁delivery 49
▁displac 49
▁disrupt 49
▁diving 49
▁examination 49
▁gender 49
▁hectare 49
▁linear 49
▁nearest 49
▁opportunity 49
▁perception 49
▁psychologist 49
▁quiet 49
▁requirements 49
ceased 48
chief 48
drome 48
founder 48
generat 48
titled 48
▁AIDS 48
▁Associate 48
▁Bennett 48
▁Edwin 48
▁Lambert 48
▁Nicaragua 48
▁RAF 48
▁Training 48
▁Wimbledon 48
▁associate 48
▁attendance 48
▁cease 48
▁celebrity 48
▁clause 48
▁comprises 48
▁enabl 48
▁ethic 48
▁explode 48
▁facility 48
▁ferry 48
▁fortune 48
▁hyp 48
▁illustration 48
▁infantry 48
▁laugh 48
▁mob 48
▁ornament 48
▁photography 48
▁prompt 48
▁refuge 48
▁secur 48
▁strategic 48
▁terminus 48
▁tribute 48
▁uncertain 48
Donnell 47
VA 47
recogniz 47
school 47
solving 47
trans 47
vascular 47
white 47
▁93 47
▁Auckland 47
▁Border 47
▁Cotton 47
▁Foot 47
▁Guardian 47
▁Hampton 47
▁Private 47
▁Shanghai 47
▁artwork 47
▁blam 47
▁burst 47
▁candidates 47
▁chorus 47
▁conclusion 47
▁configuration 47
▁confusion 47
▁consul 47
▁criteri 47
▁demonstration 47
▁dinner 47
▁divine 47
▁exploration 47
▁gentle 47
▁liberat 47
▁matrix 47
▁participate 47
▁placing 47
▁profession 47
▁remainder 47
▁retir 47
▁scandal 47
▁sought 47
▁wake 47
▁yard 47
camp 46
pala 46
Ó 46
▁Assistant 46
▁Betty 46
▁Fighter 46
▁Hindi 46
▁Holiday 46
▁LP 46
▁Mason 46
▁Monument 46
▁Nadu 46
▁Parish 46
▁Rochester 46
▁Safety 46
▁Township 46
▁acknowledg 46
▁collaborat 46
▁dialogue 46
▁duty 46
▁dys 46
▁enforc 46
▁excess 46
▁expell 46
▁fraud 46
▁gear 46
▁labour 46
▁lesbian 46
▁manual 46
▁navigation 46
▁personnel 46
▁predecessor 46
▁presid 46
▁qualify 46
▁resolve 46
▁stating 46
▁sworn 46
▁victim 46
▁vital 46
▁Beside 45
▁Cambodia 45
▁Colony 45
▁FM 45
▁Foster 45
▁Griffin 45
▁Herald 45
▁Rosen 45
▁accomplish 45
▁ascend 45
▁barrel 45
▁collective 45
▁competitive 45
▁complain 45
▁constitut 45
▁discontinu 45
▁electoral 45
▁enforcement 45
▁fake 45
▁homo 45
▁infinite 45
▁inspiration 45
▁kids 45
▁neo 45
▁portrayed 45
▁propaganda 45
▁remarkabl 45
▁renown 45
▁simultaneous 45
▁stair 45
▁stuck 45
▁swing 45
▁yield 45
famous 44
speed 44
▁Berkshire 44
▁Cardiff 44
▁Iraqi 44
▁Joshua 44
▁Legion 44
▁Municipality 44
▁Patriot 44
▁PhD 44
▁Speaker 44
▁Trinidad 44
▁adjacent 44
▁apparently 44
▁behaviour 44
▁blend 44
▁commentary 44
▁commit 44
▁comparison 44
▁considerabl 44
▁defect 44
▁enormous 44
▁explicit 44
▁incorrect 44
▁inscription 44
▁irregular 44
▁melody 44
▁noise 44
▁objective 44
▁privilege 44
▁revers 44
▁surgeon 44
▁tumor 44
Brien 43
critic 43
developed 43
escence 43
final 43
hav 43
tention 43
▁Bradford 43
▁Halifax 43
▁Lebanese 43
▁Males 43
▁Paralympic 43
▁Silesia 43
▁aggressive 43
▁attain 43
▁battery 43
▁calculation 43
▁certifi 43
▁complement 43
▁confidence 43
▁devoted 43
▁diocese 43
▁diplomatic 43
▁distant 43
▁dropping 43
▁expir 43
▁firing 43
▁headquarter 43
▁implementation 43
▁implie 43
▁negotiat 43
▁partial 43
▁perspective 43
▁racis 43
▁reopen 43
▁sack 43
▁separat 43
▁spawn 43
▁speculat 43
▁surf 43
▁sympath 43
▁torture 43
▁treasure 43
▁undergraduate 43
▁vein 43
▁venture 43
▁warfar 43
* 42
ordinat 42
president 42
ø 42
▁Commerce 42
▁Expedition 42
▁Gibraltar 42
▁Griffith 42
▁Junction 42
▁Karnataka 42
▁Nichols 42
▁Register 42
▁Secondary 42
▁Sheikh 42
▁Tournament 42
▁absent 42
▁cartridge 42
▁certificate 42
▁conspiracy 42
▁consumption 42
▁corporate 42
▁devastat 42
▁drag 42
▁feminist 42
▁fraction 42
▁guarantee 42
▁insist 42
▁maintenance 42
▁militia 42
▁mutation 42
▁peasant 42
▁permit 42
▁prohibit 42
▁qualifying 42
▁remark 42
▁remind 42
▁retriev 42
▁reunit 42
▁simulat 42
▁specialist 42
▁superior 42
Neill 41
bha 41
brook 41
clusion 41
produced 41
î 41
▁Editor 41
▁Interior 41
▁Methodist 41
▁Policy 41
▁Treasure 41
▁Vernon 41
▁amphibi 41
▁appointment 41
▁assembl 41
▁censor 41
▁certification 41
▁cited 41
▁creative 41
▁decree 41
▁dismiss 41
▁dispos 41
▁doctorate 41
▁elaborate 41
▁enroll 41
▁exhaust 41
▁finite 41
▁highlight 41
▁indicat 41
▁jury 41
▁pollution 41
▁reduction 41
▁refine 41
▁resident 41
▁resignation 41
▁scout 41
▁squad 41
2,1 40
FA 40
credit 40
electric 40
founded 40
inflammat 40
lecommunications 40
ologic 40
är 40
ð 40
▁Gujarat 40
▁Infantry 40
▁Joint 40
▁Kerala 40
▁Price 40
▁Representative 40
▁Tribune 40
▁activat 40
▁architectural 40
▁array 40
▁assume 40
▁automat 40
▁boom 40
▁chase 40
▁consume 40
▁counterpart 40
▁dorsal 40
▁drunk 40
▁enhanc 40
▁faculty 40
▁passion 40
▁pav 40
▁proceed 40
▁quantities 40
▁reservoir 40
▁restoration 40
▁sentiment 40
▁summit 40
▁synthesiz 40
▁temporarily 40
▁terminat 40
▁vowel 40
commerc 39
story 39
▁Ahmed 39
▁Bailey 39
▁Boulevard 39
▁Fifth 39
▁Grade 39
▁Knox 39
▁McKe 39
▁Shri 39
▁Syracuse 39
▁Teacher 39
▁Telegraph 39
▁Terminal 39
▁Trump 39
▁analyz 39
▁betray 39
▁circulat 39
▁circumstance 39
▁citizenship 39
▁confess 39
▁constituent 39
▁consult 39
▁criticis 39
▁depart 39
▁derivative 39
▁difficulties 39
▁dispatch 39
▁emigrat 39
▁entries 39
▁idol 39
▁outstanding 39
▁plague 39
▁respective 39
▁silent 39
▁stereo 39
▁substantial 39
▁syndicat 39
▁therapy 39
▁unemploy 39
prote 38
▁Cinema 38
▁Environmental 38
▁Liga 38
▁McDonald 38
▁Patricia 38
▁Samoa 38
▁Uganda 38
▁YouTube 38
▁analytic 38
▁collaboration 38
▁consensu 38
▁diamond 38
▁disabled 38
▁enlarg 38
▁enthusias 38
▁exclusively 38
▁faction 38
▁fatal 38
▁granite 38
▁interfere 38
▁irrigat 38
▁lawsuit 38
▁lieutenant 38
▁mortal 38
▁pedestrian 38
▁recognis 38
▁rectangular 38
▁refugees 38
▁screenplay 38
▁spark 38
▁unexpected 38
▁whil 38
built 37
franc 37
quality 37
science 37
▁Agriculture 37
▁Beyond 37
▁Butler 37
▁Ferguson 37
▁Investigat 37
▁Literar 37
▁Maharashtra 37
▁Pirates 37
▁Reynolds 37
▁attorney 37
▁deliberate 37
▁demolished 37
▁emission 37
▁enable 37
▁indicated 37
▁kitchen 37
▁lease 37
▁manipulat 37
▁permitted 37
▁prepar 37
▁qualit 37
▁slogan 37
▁steppe 37
▁teammate 37
▁unclear 37
▁utiliz 37
▁vessel 37
▁voters 37
claim 36
wrote 36
š 36
▁Complex 36
▁Custom 36
▁Qatar 36
▁Raiders 36
▁Soldier 36
▁applie 36
▁choreograph 36
▁consultant 36
▁contribution 36
▁decisive 36
▁denied 36
▁disguis 36
▁drill 36
▁framework 36
▁homosexual 36
▁intermediate 36
▁judicial 36
▁manifest 36
▁predominant 36
▁presum 36
▁rookie 36
▁striking 36
▁survivors 36
▁swimmer 36
▁syllable 36
▁triumph 36
CR 35
OM 35
hampton 35
kara 35
stroke 35
▁Annual 35
▁Built 35
▁Consul 35
▁Engineer 35
▁Financial 35
▁Flying 35
▁HIV 35
▁Protection 35
▁Voivodeship 35
▁admit 35
▁attending 35
▁attitude 35
▁cancelled 35
▁cannon 35
▁clinic 35
▁denote 35
▁didn 35
▁disband 35
▁elite 35
▁exploit 35
▁favorabl 35
▁generator 35
▁hik 35
▁identifi 35
▁impressive 35
▁innocent 35
▁judgment 35
▁preceding 35
▁recruit 35
▁resource 35
▁routine 35
▁slot 35
▁stake 35
▁ultimately 35
▁undertake 35
▁uprising 35
PR 34
contaminat 34
ukh 34
ñ 34
▁2014 34
▁Filipino 34
▁Henderson 34
▁Manufactur 34
▁Philippine 34
▁Providence 34
▁Rebecca 34
▁Relations 34
▁Twitter 34
▁celebrities 34
▁counsel 34
▁endors 34
▁garage 34
▁hazard 34
▁legitimate 34
▁preference 34
▁prestigious 34
▁rational 34
▁recall 34
▁wage 34
connect 33
induc 33
utstanding 33
▁Brewer 33
▁Presbyterian 33
▁anonymous 33
▁arriv 33
▁assert 33
▁auction 33
▁creek 33
▁emphasis 33
▁evolv 33
▁filmmaker 33
▁genuine 33
▁hamlet 33
▁handling 33
▁impos 33
▁inaugurat 33
▁militant 33
▁outcome 33
▁outlet 33
▁patrol 33
▁perceiv 33
▁regain 33
▁relax 33
▁relegat 33
▁revenue 33
▁stability 33
▁thriller 33
▁valve 33
▁watershed 33
IL 32
pati 32
▁Amateur 32
▁Emergency 32
▁Fleming 32
▁Mumbai 32
▁Provincial 32
▁Superior 32
▁abundant 32
▁advertise 32
▁ambush 32
▁battalion 32
▁biographi 32
▁clerk 32
▁comprehensive 32
▁conceiv 32
▁conversation 32
▁cruise 32
▁engagement 32
▁excavat 32
▁flank 32
▁goalkeeper 32
▁harbour 32
▁hull 32
▁immigration 32
▁impressed 32
▁innings 32
▁journalism 32
▁memories 32
▁operational 32
▁phenomena 32
▁pursue 32
▁romance 32
▁trauma 32
▁utility 32
LL 31
generation 31
girl 31
incorporated 31
screen 31
ør 31
▁Archaeolog 31
▁Colonial 31
▁Exhibition 31
▁Individual 31
▁Ladies 31
▁Marathon 31
▁Patriarch 31
▁aviation 31
▁boost 31
▁bulk 31
▁catalog 31
▁classroom 31
▁commenc 31
▁complet 31
▁consciousness 31
▁encode 31
▁enterprise 31
▁footage 31
▁gastropod 31
▁inhibit 31
▁intercept 31
▁irre 31
▁legac 31
▁mandat 31
▁mansion 31
▁punch 31
▁submitt 31
▁suppress 31
▁vault 31
CS 30
MC 30
dhya 30
establish 30
ów 30
▁00 30
▁Arlington 30
▁Aviation 30
▁Chair 30
▁Commercial 30
▁Criminal 30
▁Diploma 30
▁accent 30
▁accessible 30
▁advocate 30
▁affiliat 30
▁artifact 30
▁bike 30
▁bureau 30
▁closure 30
▁compromis 30
▁confront 30
▁contribute 30
▁corruption 30
▁dubbed 30
▁endemic 30
▁evaluat 30
▁favour 30
▁fulfill 30
▁gambl 30
▁http 30
▁imitat 30
▁incomplete 30
▁introduc 30
▁residential 30
▁seminar 30
▁sensation 30
▁siblings 30
▁sprint 30
▁trench 30
▁violation 30
cultural 29
extant 29
function 29
number 29
responsibilities 29
▁Academic 29
▁Account 29
▁Contemporary 29
▁Legislativ 29
▁Nevertheless 29
▁Recreation 29
▁accusation 29
▁achiev 29
▁ballad 29
▁batterie 29
▁comfortabl 29
▁councillor 29
▁forbidd 29
▁galleries 29
▁impression 29
▁memoir 29
▁ongoing 29
▁participation 29
▁pistol 29
▁plaque 29
▁pneumonia 29
▁recurring 29
▁reliev 29
▁relocat 29
▁requiring 29
▁resum 29
▁steady 29
▁successive 29
▁vacant 29
▁virtue 29
▁welfare 29
Ç 28
Ü 28
▁2018 28
▁Albanian 28
▁Brigade 28
▁CNN 28
▁Commodore 28
▁ESPN 28
▁Establish 28
▁Learning 28
▁Tunnel 28
▁abandon 28
▁abolition 28
▁aesthetic 28
▁assets 28
▁brigade 28
▁completion 28
▁emphasiz 28
▁employment 28
▁engage 28
▁flourish 28
▁gallery 28
▁jurisdiction 28
▁mentor 28
▁negotiations 28
▁pottery 28
▁pretty 28
▁receptor 28
▁runway 28
▁sank 28
▁satisfi 28
▁spear 28
▁stack 28
▁touchdown 28
▁transaction 28
itially 27
methyl 27
olate 27
record 27
▁Belgrade 27
▁Course 27
▁Investment 27
▁NSW 27
▁Own 27
▁Seminary 27
▁bachelor 27
▁clash 27
▁complication 27
▁devotion 27
▁donation 27
▁employee 27
▁encompass 27
▁equipped 27
▁intervention 27
▁lunch 27
▁motivat 27
▁pace 27
▁participat 27
▁pseudonym 27
▁subsid 27
▁tackle 27
▁vinyl 27
families 26
▁Furthermore 26
▁Lodge 26
▁Madonna 26
▁Monastery 26
▁Yugoslav 26
▁accommodation 26
▁accompany 26
▁accurac 26
▁affirm 26
▁authoriz 26
▁blast 26
▁coincid 26
▁convey 26
▁cooperation 26
▁correlat 26
▁duration 26
▁expense 26
▁identification 26
▁intersection 26
▁narrative 26
▁nominee 26
▁obscur 26
▁pension 26
▁preliminary 26
▁salary 26
▁snail 26
▁streak 26
▁supplement 26
fighter 25
week 25
▁2015 25
▁Hispanic 25
▁ammunition 25
▁awareness 25
▁complaint 25
▁consecrat 25
▁consolidat 25
▁halt 25
▁hierarch 25
▁honest 25
▁leak 25
▁oversee 25
▁practitioner 25
▁revolve 25
▁tendenc 25
Ì 24
ò 24
▁2013 24
▁Coalition 24
▁Elementary 24
▁assumption 24
▁brilliant 24
▁editorial 24
▁fortification 24
▁graduation 24
▁orientation 24
▁overcome 24
▁petition 24
▁practic 24
▁qualification 24
▁reception 24
▁relevant 24
▁reorganiz 24
▁roster 24
▁sponsorship 24
▁summon 24
▁sweep 24
▁terrain 24
defunct 23
▁Afghan 23
▁Battalion 23
▁Congregation 23
▁Graduate 23
▁Progressive 23
▁Sheriff 23
▁academy 23
▁anticipat 23
▁artillery 23
▁assignment 23
▁compensat 23
▁consent 23
▁deem 23
▁departure 23
▁entrepreneur 23
▁fractur 23
▁innovation 23
▁instructor 23
▁laser 23
▁lobby 23
▁medication 23
▁prospect 23
▁prototype 23
▁pursu 23
▁pursuit 23
▁recommend 23
▁surprising 23
▁wagon 23
aternity 22
eligible 22
graduate 22
▁Amendment 22
▁Appeal 22
▁Architect 22
▁Inspector 22
▁Mohammad 22
▁Shiva 22
▁capabilities 22
▁casualties 22
▁civic 22
▁congress 22
▁corrupt 22
▁educator 22
▁foster 22
▁initiative 22
▁literac 22
▁overlook 22
▁premise 22
▁prominence 22
▁relay 22
▁scenario 22
▁subscrib 22
▁technological 22
FM 21
augural 21
terrorism 21
ý 21
▁Ambassador 21
▁Consequent 21
▁Distinguish 21
▁LGBT 21
▁accommodate 21
▁admission 21
▁clinical 21
▁colonel 21
▁commitment 21
▁conjunction 21
▁crucial 21
▁custod 21
▁garrison 21
▁householder 21
▁mortar 21
▁oblig 21
▁proximity 21
▁recommendation 21
▁regulator 21
▁requirement 21
▁segregat 21
▁struggl 21
▁wreck 21
eath 20
uditorium 20
Æ 20
▁2016 20
▁Headquarters 20
▁Legislature 20
▁Sergeant 20
▁affiliate 20
▁amendment 20
▁bench 20
▁boyfriend 20
▁contradict 20
▁converg 20
▁discharg 20
▁ecclesiastic 20
▁eventual 20
▁extraordinar 20
▁maxim 20
▁migrant 20
▁pledg 20
▁reissu 20
▁rejoin 20
▁satisfy 20
▁thorough 20
theless 19
± 19
▁2017 19
▁Clinic 19
▁Krishna 19
▁María 19
▁Swift 19
▁accordance 19
▁advanc 19
▁alumni 19
▁analyst 19
▁breach 19
▁capability 19
▁compli 19
▁culminat 19
▁delegation 19
▁dispers 19
▁makeup 19
▁mystery 19
▁ordain 19
▁overwhelm 19
▁scope 19
▁surgical 19
▁sustainabl 19
collegiate 18
designat 18
vulnerable 18
û 18
▁Counsel 18
▁Credit 18
▁Industries 18
▁Latino 18
▁Martín 18
▁Previous 18
▁advocat 18
▁assess 18
▁assessment 18
▁conviction 18
▁discrimination 18
▁enlist 18
▁ensemble 18
▁ensu 18
▁fiscal 18
▁redesign 18
▁renovat 18
+ 17
ù 17
▁Android 17
▁Insurance 17
▁Kumar 17
▁Telugu 17
▁Volunteer 17
▁Zhang 17
▁accumulate 17
▁armour 17
▁ballot 17
▁innovative 17
▁intersect 17
▁maternal 17
▁notorious 17
▁opportunities 17
▁replied 17
▁semifinal 17
▁surpass 17
▁swept 17
▁tenure 17
▁unveil 17
activat 16
economic 16
prehensi 16
residing 16
▁Agricultural 16
▁Cavalry 16
▁Diocese 16
▁Episcopal 16
▁Rifle 16
▁UCLA 16
▁acquisition 16
▁aftermath 16
▁cognitive 16
▁contrar 16
▁embrac 16
▁escort 16
▁facade 16
▁favourite 16
▁incorporat 16
▁integration 16
▁motif 16
▁offense 16
▁reconstruction 16
▁registration 16
▁reluctant 16
▁statute 16
▁wingspan 16
disciplinary 15
district 15
 15
▁aerial 15
▁availability 15
▁bankruptcy 15
▁consequent 15
▁enacted 15
▁evident 15
▁fundrais 15
▁inspection 15
▁midfielder 15
▁necessit 15
▁neglect 15
▁sanction 15
▁trustee 15
▁warehouse 15
> 14
▁Quinn 14
▁adhere 14
▁audit 14
▁auxiliar 14
▁bout 14
▁congregation 14
▁convoy 14
▁exterior 14
▁instruct 14
▁issu 14
▁landowner 14
▁mollusk 14
▁neighbourhood 14
▁prevail 14
▁testimon 14
▁unanimous 14
author 13
Þ 13
▁Chennai 13
▁Subsequent 13
▁Vijay 13
▁amalgamat 13
▁brutal 13
▁cottage 13
▁ramp 13
▁strategies 13
▁summari 13
▁thrust 13
▁wicket 13
▁• 13
▁adequate 12
▁aggregate 12
▁charitabl 12
▁cruiser 12
▁deteriorat 12
▁embark 12
▁fixture 12
▁incumbent 12
▁portfolio 12
▁rehabilitat 12
▁torpedo 12
▁vicinity 12
\*\* 11
▁Revival 11
▁Summit 11
▁accredited 11
▁capita 11
▁dwelling 11
▁facilitate 11
▁garner 11
▁guidance 11
▁juvenile 11
▁showcase 11
▁spotted 11
\*\*\* 10
Ô 10
ÿ 10
† 10
▁Facebook 10
▁Squadron 10
▁curriculum 10
▁deployment 10
▁incorporate 10
▁refurbish 10
▁renovation 10
▁repris 10
▁subordinate 10
▁volleyball 10
llocated 9
▁allegations 9
▁deployed 9
▁lodge 9
! 8
® 8
▁CDP 8
▁corridor 8
partisan 7
Ž 7
▁Artillery 7
▁doesn 7
▁freestyle 7
▁rebound 7
▁squadron 7
▁waiv 7
= 6
@ 6
League 6
À 6
Í 6
õ 6
þ 6
▁prolific 6
[ 5
¥ 5
åå 5
́ 5
μ 5
▁RBI 5
▁electorate 5
▁reconnaissance 5
▁stint 5
< 4
commissioned 4
§ 4
ē 4
ž 4
© 3
È 3
Ò 3
÷ 3
Ireland 2
„ 2
▁Romaniz 2
▁codice 2
▁turret 2
** 1
? 1
] 1
Æþ 1
Óð 1
æð 1
æðæ 1
ðæ 1
Š 1
̈ 1
’ 1
− 1
▁Gmin 1
▁congressional 1
madeupword0000 0
madeupword0001 0
madeupword0002 0
madeupword0003 0
madeupword0004 0
madeupword0005 0
