▁, 425185
▁the 401044
s 316545
▁. 287464
▁of 240226
▁in 194833
▁and 182388
▁a 161133
▁is 121228
▁' 111704
▁to 107211
<WORDRANKRATIO_1.0> 103580
▁ 102165
ed 96227
- 94160
▁( 91545
▁) 88906
<DEPENDENCYTREEDEPTHRATIO_1.0> 84397
' 72254
▁The 67957
▁was 62747
▁as 56862
ing 55138
<WORDRANKRATIO_0.95> 48571
▁for 46205
▁by 45310
▁on 42142
e 40301
d 37489
▁with 36367
<WORDRANKRATIO_1.05> 33402
y 31476
▁from 30871
▁an 30823
. 30816
▁or 29353
<WORDRANKRATIO_0.9> 29016
▁that 28909
<LENGTHRATIO_1.0> 27840
ly 27519
er 26467
<LEVENSHTEIN_0.95> 25982
▁are 25554
▁A 25193
▁at 24422
t 24216
o 22054
▁his 21832
<LEVENSHTEIN_0.9> 21830
▁In 21224
<LENGTHRATIO_0.95> 21033
▁which 20981
▁; 20312
<LEVENSHTEIN_0.4> 20185
<LEVENSHTEIN_0.7> 18512
es 18354
<LEVENSHTEIN_0.65> 17959
al 17928
<LEVENSHTEIN_0.85> 17844
<WORDRANKRATIO_0.85> 17825
▁: 17533
<LEVENSHTEIN_0.8> 17519
<LEVENSHTEIN_0.75> 17433
▁it 17308
<LEVENSHTEIN_0.45> 17280
▁be 17093
<WORDRANKRATIO_1.1> 17047
a 16625
n 16488
▁- 16435
<LENGTHRATIO_0.9> 16433
▁It 16425
<LEVENSHTEIN_0.6> 16014
▁also 15967
<DEPENDENCYTREEDEPTHRATIO_0.85> 15954
<LEVENSHTEIN_0.35> 15727
▁he 15666
th 15642
<DEPENDENCYTREEDEPTHRATIO_0.8> 15515
i 14981
/ 14894
<DEPENDENCYTREEDEPTHRATIO_0.65> 14664
<LEVENSHTEIN_0.55> 14645
<LEVENSHTEIN_0.5> 14564
▁first 14360
▁has 14315
<LENGTHRATIO_1.05> 14221
▁S 14014
<DEPENDENCYTREEDEPTHRATIO_0.5> 13954
▁who 13743
in 13580
▁one 13574
<LENGTHRATIO_0.85> 13542
<DEPENDENCYTREEDEPTHRATIO_0.75> 13357
▁born 13354
▁France 13145
▁He 13111
<DEPENDENCYTREEDEPTHRATIO_0.0> 12997
<LEVENSHTEIN_1.0> 12719
<LENGTHRATIO_0.8> 12613
▁known 12421
▁were 12371
Ã 12342
<DEPENDENCYTREEDEPTHRATIO_0.6> 12225
▁its 12120
ic 11598
<LENGTHRATIO_0.75> 11133
▁commune 10916
<LEVENSHTEIN_0.3> 10798
<LENGTHRATIO_0.7> 10791
▁department 10768
on 10646
▁United 10560
r 10545
or 10526
O 10389
▁not 10282
<LENGTHRATIO_0.6> 10254
<LENGTHRATIO_0.65> 10148
le 10097
▁de 10089
▁but 10077
<LENGTHRATIO_0.55> 9939
▁have 9900
▁their 9769
<WORDRANKRATIO_1.15> 9576
<LENGTHRATIO_0.5> 9540
<LENGTHRATIO_0.05> 9523
<WORDRANKRATIO_0.8> 9488
en 9449
<LENGTHRATIO_2.0> 9407
▁1 9353
<LENGTHRATIO_0.45> 9317
▁city 9302
st 9256
de 9180
<LENGTHRATIO_0.4> 9171
<DEPENDENCYTREEDEPTHRATIO_2.0> 8996
▁other 8967
us 8870
<LENGTHRATIO_1.1> 8852
▁two 8831
m 8824
▁most 8800
▁B 8776
▁American 8680
<LENGTHRATIO_0.35> 8628
▁I 8626
k 8586
<DEPENDENCYTREEDEPTHRATIO_0.55> 8416
ion 8387
▁had 8365
▁used 8327
<LEVENSHTEIN_0.25> 8251
▁States 8203
▁E 8119
▁after 8070
ar 7997
▁can 7960
<LEVENSHTEIN_0.1> 7945
<LENGTHRATIO_0.3> 7934
<DEPENDENCYTREEDEPTHRATIO_1.15> 7917
▁been 7903
<LENGTHRATIO_0.1> 7810
▁her 7665
▁& 7622
▁into 7556
nd 7537
<DEPENDENCYTREEDEPTHRATIO_0.7> 7506
▁region 7474
ation 7447
<LEVENSHTEIN_0.15> 7402
▁C 7268
<LEVENSHTEIN_0.2> 7242
▁name 7171
<LENGTHRATIO_0.25> 7142
▁this 7045
S 6915
g 6893
▁all 6881
<DEPENDENCYTREEDEPTHRATIO_0.4> 6877
▁re 6865
▁H 6793
z 6779
▁such 6777
l 6772
▁F 6714
ist 6697
▁2 6670
▁18 6666
an 6656
▁17 6621
<LENGTHRATIO_0.15> 6619
▁U 6584
<DEPENDENCYTREEDEPTHRATIO_1.2> 6583
<DEPENDENCYTREEDEPTHRATIO_1.25> 6579
▁New 6579
ia 6577
<LENGTHRATIO_1.15> 6534
<LENGTHRATIO_0.2> 6523
<DEPENDENCYTREEDEPTHRATIO_0.35> 6522
▁O 6506
f 6485
▁more 6459
to 6423
b 6374
ian 6365
▁3 6323
▁over 6292
▁between 6286
se 6178
▁part 6147
<DEPENDENCYTREEDEPTHRATIO_0.45> 6125
▁when 6101
<DEPENDENCYTREEDEPTHRATIO_1.35> 6089
▁they 6086
▁G 6072
▁football 6046
ash 5998
<DEPENDENCYTREEDEPTHRATIO_0.9> 5945
▁time 5917
▁only 5913
▁called 5882
is 5875
<WORDRANKRATIO_1.2> 5870
▁P 5857
\ 5834
ma 5814
â 5771
man 5659
▁D 5655
il 5633
ra 5630
▁World 5616
▁than 5530
ton 5523
▁many 5496
<LEVENSHTEIN_0.05> 5481
▁M 5475
<DEPENDENCYTREEDEPTHRATIO_1.5> 5458
▁located 5410
▁English 5408
▁where 5384
re 5340
▁about 5313
ers 5312
▁May 5291
▁some 5275
▁T 5264
<WORDRANKRATIO_0.75> 5232
▁15 5192
▁16 5167
▁during 5161
▁became 5160
ro 5142
▁years 5141
u 5101
na 5076
B 5060
<LENGTHRATIO_1.2> 5047
el 5038
p 5033
▁three 5031
h 5006
ur 4988
▁W 4940
um 4900
c 4859
▁This 4807
P 4803
▁under 4789
▁4 4726
ta 4711
▁Re 4664
▁film 4654
C 4647
▁County 4636
▁second 4627
D 4600
▁La 4596
▁German 4571
▁N 4528
▁well 4504
▁team 4503
▁former 4496
▁K 4493
▁area 4473
▁state 4458
▁including 4457
▁January 4445
▁may 4445
▁10 4441
M 4435
ine 4429
▁made 4413
▁she 4411
▁series 4404
▁band 4388
▁War 4368
<LENGTHRATIO_1.25> 4365
▁released 4364
▁British 4360
x 4359
ity 4356
▁year 4344
tic 4320
▁August 4313
▁September 4288
▁North 4276
ul 4267
▁later 4247
▁March 4243
ent 4234
co 4201
▁up 4185
▁October 4167
▁being 4165
ck 4157
▁town 4157
▁number 4153
▁people 4148
▁12 4127
ous 4126
▁out 4124
do 4114
▁South 4106
▁album 4105
▁often 4102
it 4058
▁f 4058
am 4052
▁5 4025
▁new 4014
▁As 4006
ies 3997
▁population 3976
▁June 3967
▁player 3967
▁July 3965
▁world 3948
▁northern 3925
▁d 3901
est 3887
▁On 3886
▁season 3883
ary 3881
L 3874
ci 3867
Calais 3858
▁April 3842
▁14 3834
ate 3817
son 3816
<DEPENDENCYTREEDEPTHRATIO_0.25> 3813
▁England 3813
▁north 3809
<WORDRANKRATIO_1.25> 3802
ne 3794
▁named 3789
▁St 3779
▁December 3746
▁both 3735
▁p 3733
▁music 3731
▁un 3721
me 3713
id 3704
la 3701
<DEPENDENCYTREEDEPTHRATIO_0.2> 3700
as 3697
▁November 3695
▁through 3690
until 3686
▁6 3680
▁no 3679
▁University 3677
ch 3674
▁then 3670
▁Al 3668
4 3667
et 3658
<DEPENDENCYTREEDEPTHRATIO_0.15> 3656
▁so 3645
te 3643
▁R 3636
ive 3630
▁south 3627
<LENGTHRATIO_1.3> 3615
` 3614
▁20 3613
able 3596
▁De 3589
▁largest 3585
▁February 3580
▁13 3572
▁there 3558
▁Le 3555
▁She 3553
▁use 3542
ment 3539
▁2007 3535
▁French 3517
▁family 3513
▁e 3510
▁National 3497
▁John 3487
▁game 3487
ol 3484
ism 3458
▁London 3455
▁form 3450
land 3437
ant 3428
▁would 3423
▁century 3404
age 3393
ry 3388
▁system 3387
▁capital 3383
▁League 3375
ba 3367
▁11 3366
▁district 3353
ard 3352
F 3341
é 3339
▁him 3337
▁while 3328
ke 3324
▁km 3315
▁since 3313
▁2008 3294
▁four 3290
▁played 3288
be 3287
▁7 3283
▁2006 3282
▁small 3270
▁based 3267
mo 3266
ce 3252
W 3250
▁group 3249
A 3226
▁national 3222
▁best 3205
▁An 3204
▁several 3198
▁will 3198
ir 3187
currently 3182
▁For 3179
▁8 3171
E 3168
ter 3164
▁Me 3157
▁At 3153
ga 3127
▁To 3126
2 3123
▁Ba 3119
at 3118
<DEPENDENCYTREEDEPTHRATIO_0.3> 3112
▁Germany 3109
▁term 3097
▁do 3094
▁early 3091
N 3089
▁L 3080
▁J 3078
▁V 3057
li 3056
▁before 3044
T 3022
▁c 3020
▁9 3013
▁Japanese 2999
▁now 2997
▁professional 2997
▁work 2984
<LENGTHRATIO_1.35> 2983
ie 2983
▁City 2981
▁any 2981
▁n 2966
pp 2945
▁Mar 2939
<DEPENDENCYTREEDEPTHRATIO_1.4> 2918
mon 2918
, 2913
▁place 2906
▁found 2905
▁II 2899
▁long 2898
▁water 2898
▁same 2895
▁River 2887
▁usually 2874
) 2855
ty 2849
▁them 2849
▁King 2848
▁species 2845
▁After 2833
G 2832
▁major 2822
un 2819
da 2815
▁They 2812
▁government 2811
▁large 2803
<WORDRANKRATIO_0.7> 2801
▁around 2782
▁Pa 2779
der 2778
▁Roman 2769
▁Li 2766
▁Po 2763
▁Ar 2760
▁million 2754
▁won 2750
▁home 2746
▁each 2739
▁2005 2735
▁la 2726
sh 2725
▁province 2720
▁common 2701
H 2700
▁York 2699
ium 2679
ge 2677
▁2009 2674
▁consider 2674
ca 2660
ve 2659
▁Co 2658
▁co 2652
▁footballer 2651
v 2650
▁main 2641
min 2640
di 2632
▁rock 2632
▁Vi 2631
▁b 2630
ph 2618
▁con 2616
▁19 2615
▁% 2613
ber 2612
lu 2602
che 2601
op 2597
ated 2595
<DEPENDENCYTREEDEPTHRATIO_0.1> 2588
▁30 2586
▁near 2566
▁popular 2563
▁short 2559
▁television 2556
▁West 2555
▁plays 2553
ti 2552
no 2551
▁language 2548
▁Saint 2543
▁period 2535
den 2533
▁began 2520
<DEPENDENCYTREEDEPTHRATIO_1.65> 2517
im 2509
ley 2506
▁land 2501
▁Con 2500
▁pro 2499
▁end 2494
ni 2492
▁death 2491
<LENGTHRATIO_1.4> 2490
per 2487
▁referr 2487
ical 2482
up 2481
go 2471
▁within 2469
▁life 2459
▁m 2458
▁His 2452
ka 2449
▁Ca 2442
▁last 2439
ri 2436
▁single 2436
▁America 2433
lo 2429
▁see 2428
▁Australia 2426
ten 2418
V 2411
▁Japan 2411
ac 2408
▁25 2407
mb 2405
ig 2401
▁East 2401
▁these 2398
▁different 2382
▁include 2382
▁No 2381
▁high 2381
<WORDRANKRATIO_1.3> 2379
▁Na 2379
▁country 2371
les 2353
▁Be 2339
▁Pro 2337
▁Kingdom 2336
▁di 2335
▁Di 2334
R 2332
▁history 2331
▁Bo 2311
▁against 2305
ad 2295
▁President 2293
▁g 2293
ut 2292
▁live 2289
ak 2276
▁written 2268
▁Italian 2267
▁sometimes 2265
▁2004 2261
▁following 2258
▁Pas 2256
▁third 2250
▁There 2249
▁back 2249
▁2000 2245
ina 2239
▁member 2237
▁sub 2230
w 2227
ub 2222
▁Sa 2208
ster 2205
▁municipality 2203
ha 2201
▁published 2200
con 2195
os 2190
▁formed 2184
▁very 2171
<DEPENDENCYTREEDEPTHRATIO_1.1> 2167
qui 2167
▁club 2160
▁per 2151
ence 2150
lin 2148
▁Europe 2144
▁along 2144
▁One 2140
▁Ro 2140
▁dis 2136
▁Car 2135
om 2132
▁Lo 2131
▁line 2128
ish 2126
wa 2126
▁because 2118
▁pre 2114
▁24 2113
▁Greek 2111
▁example 2110
19 2108
▁members 2103
▁El 2100
▁modern 2096
00 2094
▁Mo 2088
ah 2085
▁San 2085
ance 2083
▁consist 2078
▁founded 2076
▁Her 2074
▁show 2072
▁Se 2069
ron 2068
▁commonly 2067
▁county 2067
▁Per 2066
1 2065
▁All 2065
▁Man 2064
▁song 2064
▁Nord 2063
▁order 2057
ner 2054
▁X 2054
▁southern 2053
▁produced 2046
ling 2035
20 2031
▁east 2029
▁Republic 2022
▁original 2017
▁set 2009
que 2008
Pa 2007
▁created 2007
▁21 2006
▁Ta 2004
▁day 2003
▁video 1996
ho 1994
▁like 1991
▁Ho 1984
▁developed 1969
▁Pakistan 1966
▁center 1965
du 1962
▁son 1955
▁school 1951
▁age 1949
▁father 1948
▁novel 1945
3 1943
I 1943
▁James 1937
▁held 1936
mi 1931
▁State 1930
▁body 1930
▁22 1926
▁Spanish 1925
X 1920
au 1915
▁23 1915
owever 1910
the 1910
▁word 1907
chi 1906
▁five 1906
ki 1903
▁2010 1901
▁west 1900
▁although 1898
bi 1894
mp 1893
▁Aisne 1893
▁contain 1891
▁us 1891
vi 1888
▁power 1888
hi 1885
<LENGTHRATIO_1.45> 1883
io 1883
▁title 1882
▁own 1880
▁Gu 1878
tro 1877
▁local 1872
U 1867
▁Su 1867
▁European 1866
tor 1861
▁international 1860
mer 1858
▁final 1856
▁Ne 1846
▁public 1846
▁left 1839
▁Union 1838
▁color 1833
▁singer 1831
5 1830
ow 1830
▁2001 1828
▁much 1825
ran 1824
▁become 1819
ham 1818
▁Sch 1818
▁book 1818
▁Or 1815
▁Z 1811
▁26 1806
asse 1804
men 1804
▁due 1804
▁head 1803
▁Ri 1797
▁career 1796
▁William 1795
▁built 1794
ology 1789
▁Dur 1787
va 1785
▁Go 1784
▁Ni 1779
▁Paul 1777
gen 1776
▁central 1775
▁link 1774
gar 1772
▁2003 1771
▁= 1770
▁present 1769
berg 1766
▁still 1764
ell 1756
tain 1755
▁India 1754
▁official 1748
▁games 1746
ven 1745
▁died 1744
▁t 1743
▁k 1742
j 1740
▁role 1740
western 1734
tri 1732
▁George 1732
▁California 1729
▁current 1729
▁island 1728
ang 1726
given 1726
▁non 1723
▁total 1719
▁late 1716
ius 1711
▁times 1708
▁car 1704
em 1701
▁Ka 1700
▁Lu 1700
▁change 1697
ized 1692
uc 1691
▁27 1687
ger 1684
▁Great 1682
▁another 1682
he 1681
ville 1681
ler 1672
▁o 1671
▁Can 1669
▁children 1664
▁Cup 1663
▁r 1663
line 1661
one 1661
▁playing 1660
▁similar 1659
▁Ex 1658
▁allow 1657
ction 1656
▁off 1656
▁School 1653
za 1651
▁28 1651
▁war 1651
▁Ma 1649
▁border 1649
bo 1648
▁2002 1647
▁i 1646
gu 1645
▁those 1645
▁Jo 1644
▁important 1644
▁When 1642
▁Sea 1639
▁play 1636
▁various 1635
▁if 1634
▁top 1631
▁return 1630
ally 1626
ica 1624
und 1622
▁air 1622
▁originally 1622
ure 1620
▁District 1620
▁character 1619
▁states 1617
tra 1615
▁served 1611
▁Calva 1609
▁Christian 1607
▁International 1607
▁countries 1605
▁famous 1605
Normandie 1603
har 1602
▁eastern 1601
▁record 1600
▁metal 1593
▁full 1591
ko 1589
▁did 1588
▁Australian 1586
ov 1581
▁even 1579
▁Ko 1578
gg 1576
▁1980 1575
▁natural 1575
▁sea 1574
pe 1569
ness 1566
▁Park 1566
ier 1565
▁feature 1565
▁Du 1561
▁political 1561
way 1559
▁company 1559
▁Charles 1558
▁light 1558
▁six 1558
▁storm 1558
ite 1557
ll 1557
ung 1555
Å 1555
▁took 1553
▁point 1551
lic 1548
shire 1545
▁Grand 1542
▁ch 1541
▁meaning 1541
▁human 1540
▁Party 1539
▁calendar 1538
ct 1534
<WORDRANKRATIO_1.35> 1533
▁sp 1531
<DEPENDENCYTREEDEPTHRATIO_1.6> 1530
▁few 1529
▁US 1528
▁29 1527
ial 1526
▁Bi 1524
mar 1523
▁li 1521
<LENGTHRATIO_1.5> 1520
▁Pe 1520
▁man 1520
▁Ga 1519
▁make 1519
time 1518
▁process 1518
▁tropical 1518
tin 1516
▁Church 1516
▁what 1516
ill 1515
▁Football 1514
▁general 1513
8 1512
▁Canada 1512
▁Pi 1510
sta 1508
▁# 1507
ach 1502
▁Royal 1502
▁Switzerland 1502
▁ex 1501
▁Cha 1500
▁host 1498
▁Robert 1497
▁established 1496
▁House 1494
▁Do 1493
▁en 1493
▁northwestern 1493
▁mov 1492
han 1491
▁Championship 1490
▁Empire 1488
▁just 1488
▁having 1486
▁station 1486
▁al 1472
▁actor 1470
ana 1468
by 1468
▁among 1467
▁western 1466
▁Bra 1465
▁though 1464
ja 1460
less 1459
ot 1454
▁post 1452
▁free 1451
▁generally 1449
▁Ge 1446
▁So 1446
▁ca 1446
▁Ju 1444
val 1443
<LENGTHRATIO_0.0> 1441
▁person 1441
▁list 1440
▁Pic 1439
▁By 1438
▁Te 1438
▁author 1438
ide 1437
▁could 1436
▁led 1436
<WORDRANKRATIO_0.65> 1435
ire 1432
▁w 1430
▁China 1427
tre 1424
▁me 1423
▁go 1422
▁Latin 1421
▁pop 1421
▁result 1421
▁side 1421
▁Red 1420
ux 1416
ino 1412
sen 1412
▁computer 1411
▁Western 1410
<DEPENDENCYTREEDEPTHRATIO_1.75> 1409
▁We 1407
▁come 1406
▁received 1406
▁event 1404
▁lead 1404
▁included 1399
ap 1398
▁1990 1398
▁version 1397
$ 1394
ice 1393
▁areas 1393
▁College 1391
com 1389
▁river 1388
▁Earth 1386
K 1380
▁appear 1378
▁release 1375
▁works 1375
▁Some 1374
▁1970 1373
ward 1372
cc 1371
▁Council 1371
▁En 1369
▁Ha 1369
▁without 1368
▁match 1365
pa 1364
á 1364
ign 1363
▁Henry 1361
▁mother 1361
po 1360
ari 1359
▁1999 1359
▁Island 1357
ker 1355
▁Ra 1355
▁hurricane 1355
▁debut 1351
▁0 1347
<LENGTHRATIO_1.55> 1342
ru 1341
▁Italy 1337
▁however 1337
cul 1336
cy 1336
we 1336
▁Mon 1336
▁canton 1336
▁making 1336
ors 1335
lan 1334
▁Central 1334
▁Dr 1334
oc 1333
ver 1333
▁award 1333
,000 1331
▁range 1331
▁Che 1330
▁page 1330
ny 1328
▁Award 1328
▁ge 1327
▁reach 1326
▁Ph 1323
▁type 1321
ft 1318
▁parts 1318
▁Hu 1315
ions 1314
tion 1314
▁simply 1311
Â 1307
▁Canadian 1307
▁old 1304
▁refer 1304
ong 1303
▁development 1303
▁First 1302
▁village 1301
▁Au 1298
▁came 1297
▁includes 1297
7 1296
▁Wi 1296
▁These 1292
ev 1289
▁David 1289
▁days 1289
▁down 1289
▁Africa 1287
▁science 1285
▁mo 1284
▁control 1283
▁right 1283
▁Black 1282
gan 1281
ator 1279
▁Music 1279
tan 1275
▁Minister 1272
lip 1271
▁My 1271
▁Ireland 1270
▁art 1270
▁Mal 1269
des 1265
▁Ver 1260
▁Year 1259
▁style 1258
▁composer 1257
▁help 1256
ec 1255
vo 1254
don 1253
▁either 1251
▁du 1250
▁Ja 1249
lthough 1247
▁movement 1247
▁Scotland 1246
▁History 1245
▁less 1245
▁ten 1245
end 1243
ning 1242
▁Mac 1242
▁Hall 1241
▁daughter 1241
<DEPENDENCYTREEDEPTHRATIO_1.3> 1239
▁vi 1238
▁III 1237
▁coast 1237
▁law 1237
▁Chi 1236
▁half 1235
ating 1231
side 1231
sk 1230
wi 1227
▁31 1227
▁Cor 1225
▁ma 1225
▁approximately 1224
0,000 1223
▁unit 1218
ud 1217
▁1998 1216
ya 1213
gi 1212
▁Queen 1212
▁miles 1208
▁Russian 1207
▁com 1207
▁Atlantic 1205
▁Fi 1205
ography 1204
let 1203
▁Asia 1200
▁Tri 1200
ford 1199
▁success 1196
▁Girond 1195
▁Super 1195
▁Indian 1192
res 1191
▁UK 1188
▁means 1188
▁red 1188
▁support 1188
can 1187
▁Ab 1187
▁continu 1187
all 1184
sur 1183
▁100 1182
▁Paris 1182
car 1181
▁seat 1181
▁Pre 1177
▁Air 1176
cle 1175
fi 1175
▁officially 1174
▁text 1174
▁Brazilian 1173
ip 1172
▁BC 1172
▁discovered 1172
▁way 1170
▁together 1169
▁stage 1168
▁studio 1168
▁le 1167
▁military 1167
▁While 1166
▁languages 1163
▁Cal 1161
▁wife 1161
ea 1159
▁white 1159
▁independent 1157
▁Chinese 1156
▁started 1156
▁take 1156
▁energy 1154
sch 1153
▁position 1153
ble 1152
▁surface 1152
▁te 1150
<LENGTHRATIO_1.6> 1149
▁Bal 1149
▁caus 1149
▁food 1149
▁Lake 1147
▁Sal 1147
▁black 1147
▁appeared 1146
▁recorded 1145
▁Louis 1144
▁General 1142
▁Ben 1141
▁1994 1140
nes 1139
▁study 1138
▁1995 1137
ile 1136
▁every 1136
Î 1135
▁1996 1135
▁Day 1131
è 1128
▁WWE 1128
▁Bay 1127
▁does 1127
ix 1125
▁Richard 1125
port 1123
fa 1122
ff 1122
Ä 1122
▁According 1122
▁date 1122
ified 1121
ug 1120
▁others 1120
ric 1119
▁Los 1119
ji 1118
qu 1117
▁far 1116
ther 1115
▁next 1115
ization 1114
▁close 1114
▁again 1113
▁open 1113
▁space 1113
▁bar 1112
▁throughout 1112
▁Peter 1111
▁influence 1111
ise 1110
▁God 1109
▁refers 1108
▁Dutch 1104
▁Star 1104
▁remain 1104
aw 1103
tu 1103
▁great 1103
<WORDRANKRATIO_1.4> 1099
▁network 1099
▁Michael 1098
▁service 1097
ring 1096
▁Col 1096
▁Catholic 1095
▁today 1094
▁wide 1094
6 1093
▁1997 1090
▁especial 1090
▁ice 1090
▁rule 1089
ou 1088
and 1087
▁symbol 1087
▁systems 1087
▁Hi 1086
▁site 1085
▁living 1084
▁real 1083
▁po 1082
ities 1080
▁Florida 1080
▁Va 1080
▁production 1080
▁size 1080
▁wind 1080
▁men 1079
▁division 1078
▁director 1076
ai 1075
▁Sir 1075
▁Sun 1075
▁across 1074
▁design 1073
▁Disney 1071
<LEVENSHTEIN_0.0> 1070
ade 1069
▁Rock 1069
ick 1068
▁Green 1067
▁Ven 1067
▁fourth 1067
▁Battle 1064
▁chemical 1064
▁starting 1064
▁1992 1063
▁Scottish 1061
9 1060
▁features 1060
▁forms 1060
▁pass 1060
▁married 1059
▁sold 1059
▁Mor 1058
▁hand 1058
phy 1057
▁traditional 1057
ological 1056
▁Fa 1056
▁ancient 1054
▁wrote 1054
▁mid 1052
▁Most 1050
IS 1049
<LENGTHRATIO_1.65> 1048
▁performance 1048
▁story 1048
▁Berlin 1047
▁described 1047
▁Gi 1042
▁highest 1041
▁market 1041
▁origin 1041
▁sh 1041
▁Mi 1040
day 1039
ney 1038
▁High 1037
▁teams 1036
▁seven 1035
act 1034
vent 1034
▁display 1034
▁leading 1034
▁1993 1033
▁Since 1032
▁With 1032
▁key 1031
▁Soviet 1030
▁league 1029
▁nu 1029
▁hit 1028
▁low 1028
tur 1027
▁Bur 1027
▁theory 1026
0 1023
well 1022
burg 1021
▁went 1021
▁Am 1019
▁Sar 1018
▁special 1018
▁Emperor 1017
▁building 1017
: 1016
ille 1016
unt 1016
▁Da 1015
▁level 1015
ab 1011
ular 1011
▁Bar 1011
▁Province 1011
▁announc 1011
rs 1010
▁Northern 1010
▁house 1010
ple 1008
▁performed 1008
▁information 1007
ps 1006
▁From 1006
▁blue 1006
▁plant 1006
▁replac 1006
▁books 1005
▁itself 1005
▁provide 1005
▁radio 1002
▁retired 1001
ship 999
▁producer 999
▁sc 999
▁exist 997
▁social 997
ris 996
▁cities 996
her 995
▁1960 995
▁NHL 994
▁Act 992
▁Thomas 990
▁leader 990
ect 989
▁Association 989
▁women 989
zo 987
▁1979 987
J 985
field 985
▁Old 984
▁strong 984
▁said 983
mm 979
▁cell 979
ful 977
ists 977
tern 977
▁successful 977
tz 973
▁related 973
▁th 973
▁50 972
▁actress 972
hu 971
ik 970
ey 969
▁administrative 969
▁least 969
▁should 969
ches 968
▁field 968
▁genus 968
▁program 967
▁Bre 966
▁addition 966
▁Spain 965
top 964
xi 964
▁Ocean 964
▁Club 963
▁better 963
▁names 963
▁taken 963
ex 961
▁engine 961
<LENGTHRATIO_1.7> 960
▁bo 960
▁ne 960
▁films 958
mph 957
ze 957
▁Division 957
jo 956
▁politician 956
▁software 956
▁super 955
▁widely 955
▁almost 954
▁ground 954
▁writer 954
kin 953
▁Hockey 953
pi 951
▁Za 951
▁young 951
▁events 950
▁designed 949
▁Wales 948
war 947
▁Parliament 946
▁Prince 946
▁Y 946
▁guitar 946
▁length 945
▁must 944
▁brother 943
old 942
▁1974 942
▁Records 941
▁White 941
▁commercial 941
▁typically 941
Ð 940
▁inter 940
▁available 939
▁himself 939
▁oldest 939
▁separate 939
ting 938
tter 935
▁above 935
▁forces 934
▁source 934
out 933
▁upon 933
▁Wrestling 932
▁culture 932
▁signed 932
▁Sp 931
▁manager 931
ets 930
mate 930
▁1981 930
▁race 930
art 929
over 929
▁Cla 928
▁Han 928
ett 927
▁Other 927
▁research 927
ever 926
ssociated 926
▁Tu 926
▁brand 925
▁attack 924
▁songs 924
zi 923
▁enter 923
▁Edward 922
▁Wa 922
▁according 922
▁na 920
▁beginning 919
▁joined 919
▁met 919
▁office 919
▁port 919
cha 918
▁cl 918
▁recording 918
▁historical 917
▁Ch 916
▁Port 916
lia 914
▁significant 914
use 913
▁Britain 913
▁Duke 913
▁Min 913
▁musical 913
▁Stra 912
▁uses 912
▁model 911
▁plants 911
van 910
▁elected 910
▁pe 910
itz 909
▁bi 909
ative 904
▁Ti 904
▁divided 903
▁organization 903
q 902
▁1982 901
▁multi 901
▁opera 901
▁anti 900
▁never 900
▁defin 899
cycl 898
▁Martin 897
ture 896
▁orchestra 896
▁Mexico 895
▁native 895
▁Best 894
▁further 894
▁good 894
▁Un 893
▁larger 892
▁produce 892
cent 891
led 891
▁Prime 891
▁seen 891
▁Many 890
▁base 890
▁force 890
▁hard 890
sia 889
▁Army 889
▁followed 889
▁party 889
ep 888
ld 888
ola 888
vin 888
▁run 888
▁1989 887
▁project 887
▁writing 886
uff 885
▁once 885
shi 884
▁Dan 882
▁data 882
gue 881
▁introduced 881
tal 880
▁below 880
pha 879
▁Entertainment 879
▁primari 878
▁we 878
row 877
▁terms 877
▁types 877
ez 876
rather 875
▁1986 875
▁Book 874
▁square 874
▁Pacific 873
▁Pla 873
▁formerly 873
10 872
oon 872
pur 871
sky 870
▁church 870
▁se 869
▁university 869
yl 868
▁Gra 868
▁Mary 868
▁artist 868
rd 866
▁class 865
▁mostly 864
▁nation 864
▁working 864
▁Ke 863
▁Eastern 861
ena 860
▁orbit 860
ians 858
▁Har 858
▁Shi 857
▁Washington 857
▁community 857
▁animals 856
▁characters 856
nt 855
▁Middle 855
▁mu 854
▁tour 854
tes 853
▁Sol 853
ette 852
idae 851
▁Formula 851
off 850
▁1967 850
▁Boy 849
▁Islands 849
▁child 849
50 848
ize 848
▁gas 848
▁1984 847
▁Academy 847
▁And 846
▁j 846
ries 845
tom 845
▁+ 845
▁bank 845
▁fire 845
▁groups 845
▁Street 844
18 843
▁40 843
▁va 843
▁website 843
▁Center 842
▁1991 841
▁Line 841
▁composed 840
▁king 840
▁material 840
▁track 840
▁worked 840
ku 839
qua 839
30 838
▁Wikipedia 838
▁standard 838
ek 837
▁mass 837
▁provid 836
▁You 835
of 834
▁Phil 834
▁players 834
▁sa 834
ath 833
▁1975 833
▁Fe 833
▁discover 833
▁star 832
▁BBC 831
▁Nor 831
▁pi 831
cher 830
rie 830
▁particularly 830
ef 829
▁Th 829
▁civil 829
▁conductor 829
▁para 827
sel 826
▁Company 826
▁business 826
spite 825
▁census 825
▁sound 825
▁Victoria 824
▁front 824
▁units 824
▁Nintendo 823
▁Game 822
▁situated 822
▁em 821
▁thus 821
ual 820
▁outside 820
▁certain 819
ü 818
▁1977 818
▁physical 818
ean 817
▁scale 817
▁temperature 817
▁voice 817
▁Angeles 816
▁1973 815
<LENGTHRATIO_1.75> 814
ves 814
if 813
▁code 812
▁Windows 811
▁Iowa 809
▁Southern 809
▁minor 809
▁move 809
-19 808
istic 808
lie 808
ura 808
▁opened 808
▁words 807
ible 805
▁1969 805
▁label 805
fe 804
form 804
▁Tom 804
▁sister 804
▁v 804
▁Lord 803
▁Hurricane 802
▁Par 801
▁System 801
▁districts 801
▁gave 801
▁how 801
▁describe 800
▁trans 800
ay 799
ini 799
itch 799
▁Cre 799
▁months 799
wood 798
▁guitarist 798
tt 797
enne 795
▁1971 795
▁app 795
▁acid 794
itt 793
▁! 793
▁1987 792
▁Tra 792
▁planet 791
▁structure 791
▁Land 790
▁principal 790
.2 789
▁If 788
▁chart 788
▁particular 788
▁1972 787
ks 786
▁Tim 786
▁distance 786
▁smaller 785
▁1976 783
▁interest 783
▁break 782
▁economic 782
▁killed 782
▁Government 780
▁Is 780
▁lost 780
▁services 780
60 779
ender 779
illa 779
pher 779
vis 779
▁See 779
▁TV 779
▁Virginia 779
year 778
▁Games 778
▁birth 777
▁court 777
▁directed 777
▁disc 777
▁Er 776
▁reference 775
▁round 775
ox 774
▁Cat 774
▁Prize 774
ition 773
▁Vol 773
▁college 772
▁ever 772
▁you 772
gre 770
▁1983 770
▁Chicago 769
▁Texas 768
ates 767
▁Hy 767
▁lower 767
▁railway 767
hen 766
▁eight 766
▁tri 766
our 765
▁defeat 765
<LENGTHRATIO_1.8> 764
▁mainly 764
▁night 764
▁hockey 763
▁Brazil 762
▁Early 762
▁numbers 762
iv 761
▁Ter 761
▁gain 761
▁subsequent 761
▁private 760
ologist 759
▁fl 759
▁rest 759
▁view 759
mann 758
ren 758
▁Yu 758
▁Don 757
▁council 757
▁eventually 757
ese 756
▁Qu 756
▁damage 756
ria 755
▁1978 754
▁union 754
▁1945 753
▁Nobel 753
▁championship 753
ib 752
▁Men 752
▁Rome 752
▁primary 752
▁Gar 751
▁Pan 751
▁Russia 751
▁Sin 751
▁Wall 751
▁regions 751
br 750
▁access 750
▁attempt 750
▁sports 750
▁trade 750
lor 749
▁ball 749
▁southeastern 749
rus 748
▁Sc 748
▁mountain 748
▁cells 747
▁coach 747
▁declar 747
<WORDRANKRATIO_1.45> 746
abad 746
▁Austria 746
ants 745
▁1950 745
▁Ze 744
▁article 744
▁Art 743
▁create 743
40 742
▁heat 742
▁average 741
▁Ve 740
▁Premier 739
▁l 739
▁lies 739
mal 738
▁Gal 738
▁ring 738
▁ta 738
▁Fer 737
bre 736
hy 736
▁1988 736
▁Over 736
▁begin 735
▁heavy 735
▁African 734
▁Fri 734
▁blood 734
▁col 734
▁compound 734
▁win 734
rt 733
▁Sam 733
llar 732
low 732
▁Joseph 732
▁status 732
sis 731
▁Val 731
▁lake 731
pos 730
▁Life 730
▁Pol 730
▁worldwide 730
ctor 729
▁spell 729
becoming 728
ella 728
▁Christ 728
▁Second 728
▁albums 728
▁need 728
04 727
▁instead 727
▁past 727
tag 724
bal 723
omy 723
vers 723
▁complex 723
▁president 723
▁strike 723
▁whom 723
▁1985 721
ious 720
▁Si 720
▁pen 720
▁serve 720
▁1968 719
▁Inter 719
▁accept 719
▁Irish 718
▁Oklahoma 718
▁individual 718
▁variety 718
▁Para 717
▁thought 717
▁inhabitants 716
ue 715
▁toward 715
▁Valley 714
▁concert 714
oo 713
vid 713
▁away 713
▁case 713
▁cat 713
▁islands 713
▁qua 713
og 712
▁pressure 711
cre 710
ographic 710
▁Ber 710
▁practice 710
▁starr 710
▁von 710
ans 709
pen 709
▁episode 709
<LENGTHRATIO_1.85> 708
tru 708
í 708
▁edition 708
▁honor 708
gra 706
▁read 706
bar 705
▁goal 705
▁multiple 705
▁previously 705
15 704
▁Dom 704
▁Road 704
▁association 704
▁Muslim 703
▁battle 703
▁poet 703
▁territory 703
<LENGTHRATIO_1.9> 702
▁Mario 702
▁Ya 702
▁wave 702
lum 701
▁direct 701
▁nickname 701
▁sign 701
ani 700
▁elements 700
rich 699
▁Santa 699
▁object 699
ken 698
▁equal 698
Picardie 697
▁Free 697
ept 696
▁Count 696
▁Vo 696
oth 695
▁active 695
▁Zealand 694
▁concept 694
ax 693
▁block 693
▁green 693
.5 692
most 692
▁Cho 692
▁flag 692
▁nine 692
▁Pu 691
vel 690
view 690
▁Mc 690
▁derived 690
ew 689
▁fact 689
▁Major 688
▁Tre 688
pt 687
▁Ser 687
▁issue 686
07 685
bot 685
red 685
cu 684
ö 684
▁Mer 684
▁shows 684
Ø 683
▁Loire 683
▁gold 683
ane 682
bon 682
▁becomes 682
poli 681
▁estimated 681
▁fifth 681
▁fish 681
08 680
like 680
▁Secretary 680
▁disease 680
▁magazine 680
▁religious 680
ita 679
▁Court 679
▁Bro 678
▁branch 678
▁students 678
ole 677
stone 676
▁alternative 676
... 675
▁Ki 675
▁Sta 675
▁Under 675
▁represent 675
▁Love 674
▁Netherlands 674
▁female 674
east 673
tive 672
▁Champion 672
▁week 672
▁higher 671
▁ho 671
ient 670
à 670
▁Blue 670
▁little 670
▁Arch 669
▁Bell 669
▁possible 668
▁rank 668
known 667
ory 667
ros 667
unk 667
É 667
▁musician 667
▁paper 667
onic 666
▁entire 666
▁movie 666
▁Fla 665
▁account 665
fri 664
rag 663
▁Ku 663
▁previous 663
▁remains 663
▁themselves 662
ight 661
ä 661
▁Ol 661
uk 660
<WORDRANKRATIO_0.6> 659
lon 659
▁cyclone 659
▁southwestern 659
▁Korea 658
▁operating 658
bert 657
bu 657
▁Romania 657
▁numerous 657
80 656
90 656
hal 656
▁directly 656
.3 655
iz 655
▁Char 655
light 654
mu 654
pro 654
pri 653
▁Tro 653
▁Young 653
▁appointed 653
▁park 653
▁points 653
▁winning 653
▁Dar 652
01 651
▁articles 651
▁fiction 651
▁Cy 650
▁Pri 650
▁stadium 650
brought 649
▁Their 649
70 648
▁1947 648
▁Austrian 648
▁Group 648
▁cross 648
▁recognized 648
▁via 648
.0 647
▁driver 647
▁middle 647
06 646
bit 646
ude 646
09 645
ery 645
.1 644
ale 644
cro 644
▁occur 644
bin 643
mit 643
▁Two 643
cus 642
worth 642
▁offer 642
born 641
▁Cu 641
▁Q 641
▁travel 641
crypt 640
▁competition 640
▁print 640
af 639
▁Fre 639
▁Im 639
▁Kar 639
▁Time 639
▁imp 639
▁lines 639
▁reported 639
▁studi 639
▁towns 639
▁Jr 638
▁act 637
▁amount 637
▁able 636
▁micro 636
bra 635
enburg 635
log 635
▁Nu 635
▁People 635
▁settlement 635
arch 634
▁Bu 634
▁Nazi 634
▁Pope 634
▁completed 634
press 633
▁added 633
▁takes 633
amp 632
▁Department 632
▁tradition 632
vor 631
mor 630
▁Pat 630
▁compar 630
▁Carl 629
ng 628
▁subject 628
▁Ru 627
▁Tal 627
▁road 627
▁singles 627
cal 626
sphere 626
▁Elizabeth 626
▁Home 626
▁drive 626
▁earlier 626
▁regular 626
▁relationship 626
oid 625
yo 625
▁Awards 625
▁Bel 625
▁direction 625
▁start 625
<LENGTHRATIO_1.95> 624
own 624
▁Lee 624
▁Tour 624
▁experience 624
nam 623
▁Carolina 623
▁protect 623
bel 622
pel 622
▁media 622
air 621
▁But 621
▁Com 621
▁share 621
▁tribe 621
Alpes 620
▁Manchester 620
▁majority 620
▁route 620
▁box 619
▁continue 619
▁schools 619
▁simple 619
▁Ed 618
▁Hill 618
▁Tor 618
▁cru 618
▁gr 618
▁location 618
▁oil 618
cur 617
▁Je 617
▁notable 617
ised 616
par 616
▁Poland 616
▁Sil 616
▁animal 616
▁election 615
▁et 615
▁moon 615
▁personal 615
ces 614
rit 614
▁broadcast 614
ugh 613
▁Rh 613
▁nearly 613
based 612
dom 612
▁60 612
▁Bill 612
▁Korean 612
▁Scott 611
▁cap 611
▁join 611
▁test 611
cat 610
nch 610
sha 610
▁tree 610
▁Georgia 609
hr 608
▁Bun 608
▁Swedish 608
▁adopted 608
▁annual 608
▁mark 608
▁sent 608
ack 607
▁Institute 607
▁Olympic 607
▁recent 607
▁seasons 607
head 606
une 606
▁founder 606
▁semi 606
EC 605
tus 605
▁Luc 605
▁put 605
▁Oxford 604
▁da 604
▁deal 604
▁nuclear 604
▁soon 604
▁vote 604
03 603
lam 603
▁Armenian 603
▁Maria 603
▁develop 603
▁figure 603
▁legal 603
ort 602
▁1965 602
▁Governor 602
cht 600
nie 600
phe 600
▁1963 600
▁Mel 600
▁Ur 600
▁dog 600
▁pay 600
.4 599
ray 599
tis 599
uck 599
▁Brown 599
ement 598
play 598
▁Federal 598
▁Mad 598
▁god 598
tric 597
wick 597
▁Mir 597
▁element 597
ju 596
▁Alexander 596
▁Gen 596
▁Julian 596
▁Mark 596
▁Reg 596
▁camp 596
▁merg 596
▁specific 596
▁Jesus 595
▁Mont 595
▁lu 595
dia 594
ification 594
▁1930 594
chen 593
▁Ger 593
▁Lady 593
▁asteroid 593
▁industry 593
▁rough 593
eu 592
▁Illinois 592
▁McC 592
▁Town 592
▁speed 592
▁Big 591
▁believed 591
▁midfielder 591
ala 590
▁Egypt 590
▁collection 590
▁wood 590
-1 589
▁Golden 589
▁Jupiter 589
▁rate 589
▁rights 589
▁wing 589
▁Brit 588
▁Census 588
▁letter 588
▁peak 588
05 587
▁Prix 587
▁defeated 587
▁double 587
▁highly 587
▁1964 586
▁Jewish 586
▁army 585
▁era 585
eg 584
gin 584
▁Eu 584
▁complete 584
▁ha 584
▁mi 584
mic 583
▁1961 583
▁Greg 583
▁Night 583
▁distribution 583
assi 582
fer 582
▁future 582
▁saw 582
▁spin 582
back 581
▁Ana 581
▁Law 581
▁Wood 581
▁appearance 581
▁cent 581
▁construction 581
▁education 581
din 580
ute 580
▁Fox 580
▁Hard 580
bol 579
▁Jack 579
▁Live 579
▁Web 579
ain 578
put 578
su 578
▁Albert 578
▁cast 578
▁content 578
▁parents 578
▁summer 578
.6 576
tem 576
▁1949 576
▁Raw 576
▁edit 576
▁function 576
▁love 576
avi 575
▁credit 575
▁cultural 575
eo 574
zar 574
▁Water 574
▁adult 574
▁am 574
▁1920 573
▁Age 573
▁Op 573
ped 572
▁Fire 572
▁construct 572
gon 571
west 571
▁Orchestra 570
▁animated 570
▁environment 570
▁owned 570
▁Van 569
▁bass 569
▁cause 569
bul 568
▁stars 568
ston 567
▁del 567
▁makes 567
▁newspaper 567
char 566
fall 566
ges 566
▁1948 566
▁Class 566
▁suggest 566
aff 565
och 565
ister 564
▁1940 564
▁Ci 564
▁whole 564
ference 563
▁Ken 563
▁organ 563
uch 562
▁Area 562
▁bio 562
▁organism 562
▁woman 562
.8 561
12 561
dri 561
long 561
▁USA 561
ome 560
▁Anti 560
cel 559
not 559
▁Four 559
▁behind 559
▁continent 559
▁reign 559
▁Airport 558
▁always 558
▁electric 558
▁fictional 558
▁police 558
▁section 558
ee 557
▁x 557
heim 556
▁Hor 556
▁nature 556
.7 555
▁Series 555
▁su 555
▁Out 554
▁Smith 554
▁board 554
▁definition 554
▁recently 554
cit 553
mat 553
▁1962 553
▁Comp 553
▁Railway 553
▁humans 553
▁image 553
▁older 553
▁satellite 553
▁write 553
ae 552
▁taking 552
cho 551
elle 551
▁Bridge 551
▁chief 551
▁gu 551
pic 550
sburg 550
▁Harry 550
▁Polish 550
▁defender 550
▁report 550
bri 549
▁difference 549
▁involved 549
▁translat 549
▁tro 549
<WORDRANKRATIO_1.5> 548
bl 548
cing 548
▁Andrew 548
▁More 548
▁classical 548
▁cr 548
16 547
▁Radio 547
▁Internet 546
▁leg 546
▁machine 546
▁string 546
▁Bou 545
▁cor 545
▁rain 545
▁self 545
bor 544
king 544
▁Kan 544
▁action 544
▁changes 544
▁ended 544
▁running 544
▁vocals 544
▁1946 543
▁AD 543
▁Dam 543
▁attended 543
▁matter 543
▁tall 543
IA 542
hn 542
▁etc 542
▁probabl 542
Y 541
arian 541
▁Far 541
▁Mount 541
▁Tropical 541
▁contract 541
▁degree 541
▁increase 541
▁1966 540
▁IV 540
25 539
RC 539
vol 539
▁200 539
▁Cape 539
▁Jean 539
▁distinguish 539
▁ship 539
▁Follow 538
▁Gulf 538
▁solo 538
ram 537
▁arch 537
▁urban 537
ã 536
▁ocean 536
pplied 535
▁Holy 535
▁Mus 535
▁piano 535
▁regarded 535
▁upper 535
▁Belgian 534
▁copies 534
▁initially 534
▁table 534
▁Saturn 533
▁decided 533
▁heart 533
17 532
▁Fo 532
▁abbreviat 532
▁ask 532
▁spoken 532
bury 531
mont 531
tch 531
▁1939 531
▁dark 531
▁drama 531
▁expand 531
▁true 531
89 530
II 530
ban 530
lar 530
matic 530
pir 530
▁Cross 530
▁connect 530
▁fruit 530
▁soccer 530
▁wrestling 530
_ 529
stra 529
▁Little 529
▁Mu 529
▁Persian 529
▁frequently 529
▁health 529
▁mar 529
▁prominent 529
lav 528
▁Society 528
▁carbon 528
▁user 528
▁Frank 527
97 526
bus 526
oli 526
▁Ren 526
▁winner 526
ón 525
▁Gro 525
▁Stone 525
▁Summer 525
▁lo 525
▁Dor 524
▁bomb 524
▁effect 524
▁valley 524
▁Born 523
▁sport 523
▁volume 523
▁Em 522
▁pa 522
▁salt 522
▁southwest 522
stein 521
ó 521
▁1959 521
▁Democratic 521
▁Nations 521
▁Region 521
▁Walt 521
▁dead 521
▁here 521
OS 520
aries 520
▁Bank 520
▁Camp 520
▁Les 520
▁bra 520
▁mis 520
▁train 520
11 519
▁Like 519
▁Will 518
.9 517
▁Mur 517
var 516
▁Bush 516
▁sun 516
lay 515
osa 515
▁device 515
ann 514
late 514
ull 514
▁35 514
▁Ban 514
▁Long 514
▁ob 514
key 513
▁1952 513
▁dance 513
▁greatest 513
▁roles 513
ich 512
▁Congress 512
▁Rod 512
▁distinct 512
▁except 512
▁flow 512
▁male 512
14 511
bro 511
▁Melbourne 511
▁Museum 511
▁buildings 511
ato 510
grad 510
ore 510
▁feet 510
▁limited 510
▁str 510
▁suburb 510
ington 509
▁Portuguese 509
▁architecture 509
▁hours 509
▁pal 509
ose 508
▁deep 508
▁face 508
meter 507
▁Arm 507
▁Philip 507
▁bit 507
▁friend 507
▁literature 507
▁racing 507
ata 506
▁45 506
▁industrial 506
▁theme 506
92 505
Z 505
gri 505
▁Arthur 505
▁Inc 505
▁approach 505
▁evidence 505
▁studies 505
▁turn 505
ook 504
▁Cast 504
▁Force 504
▁Show 504
▁longer 504
▁method 504
▁sources 504
▁value 504
▁Bri 503
▁digital 503
▁wrestler 503
▁Gold 502
▁opening 502
▁spent 502
▁web 502
▁wild 502
house 501
lli 501
▁1957 501
▁Dun 501
▁Ran 501
▁Song 501
▁cases 501
▁northeast 501
▁pronounc 501
02 500
oxide 500
rate 500
rk 500
▁Olympics 500
▁campaign 500
▁independence 500
fu 499
pu 499
▁Fort 499
▁Original 499
▁focus 499
akh 498
ano 498
▁Kur 498
▁Team 498
▁kind 498
▁required 498
▁serving 498
cast 497
ically 497
set 497
ye 497
▁Dis 497
▁Even 497
▁Kh 497
▁editor 497
▁meet 497
▁relatively 497
36 496
▁Bor 496
▁Cra 496
▁composition 496
▁par 496
▁responsible 496
ecause 495
ene 495
renamed 495
stan 495
▁Sho 495
▁bear 495
rum 494
▁grant 494
▁scientific 494
▁surrounding 494
chy 493
igh 493
ime 493
kan 493
ulate 493
▁Cam 493
▁News 493
▁comedy 493
▁rapid 493
▁sequel 493
87 492
ski 492
wan 492
▁Daniel 492
▁Len 492
▁literal 492
ara 491
cia 491
Ï 491
▁Belgium 491
▁Hol 491
▁largely 491
▁1953 490
▁Mos 490
▁Revolution 490
▁Sub 490
nu 489
▁Ohio 489
▁Press 489
▁royal 489
aceae 488
ense 488
law 488
▁Commonwealth 488
▁Cur 488
▁generation 488
▁shape 488
ô 487
▁claim 487
▁mouth 487
▁tell 487
cor 486
lock 486
▁Angel 486
▁Microsoft 486
▁count 486
▁give 486
▁products 486
▁carrie 485
▁sexual 485
▁sixth 485
dra 484
eng 484
grew 484
ties 484
▁FC 484
▁format 484
▁operat 484
▁want 484
fre 483
mus 483
▁Ali 483
▁CD 483
▁Common 483
▁scene 483
▁Mil 482
▁Pra 482
▁belong 482
▁centre 482
fin 481
▁quickly 481
▁rise 481
▁sense 481
▁spread 481
del 480
ood 480
▁Cro 480
▁Storm 480
& 479
cker 479
ok 479
▁Khan 479
▁Part 479
▁conf 479
▁cook 479
▁gene 479
94 478
die 478
gor 478
pul 478
▁Francisco 478
▁channel 478
▁find 478
▁longest 478
▁map 478
▁too 478
av 477
Ù 477
▁1944 477
▁DVD 477
▁Open 477
▁month 477
▁platform 477
▁portion 477
▁stations 477
<DEPENDENCYTREEDEPTHRATIO_1.8> 476
town 476
▁Ram 476
▁Sha 476
▁ago 476
▁already 476
▁billion 476
▁remov 476
yan 475
▁Hal 475
▁lack 475
▁theater 475
án 474
▁80 474
▁Des 474
▁centuries 474
▁champion 474
▁keep 474
▁latter 474
▁product 474
▁propos 474
▁titles 474
▁yellow 474
,6 473
nic 473
▁1958 473
▁dates 473
▁express 473
▁nearby 473
▁occasion 473
▁parallel 473
▁particle 473
▁proper 473
▁stories 473
37 472
court 472
rin 472
spec 472
▁Cathedral 472
▁formal 472
▁noted 472
wing 471
▁1955 471
▁Spe 471
▁actually 471
▁collect 471
▁moving 471
▁northwest 471
▁pin 471
los 470
▁90 470
▁Kentucky 470
▁earliest 470
▁emperor 470
▁tu 470
til 469
▁Br 469
▁Sweden 469
▁clear 469
▁formula 469
lem 468
▁Boston 468
Mar 467
ites 467
mis 467
ode 467
ration 467
tsu 467
▁1956 467
▁Vienna 467
▁Win 467
▁climate 467
▁street 467
cer 466
ult 466
▁Beach 466
▁command 466
▁file 466
▁flu 466
▁growth 466
▁painter 466
▁relative 466
▁twenty 466
21 465
ago 465
vert 465
▁Wal 465
▁Yo 465
▁hot 465
▁runs 465
45 464
tel 464
▁Columbia 464
▁Johann 464
▁1954 463
▁Var 463
▁metropolitan 463
▁records 463
▁represented 463
▁versions 463
ase 462
▁Chris 462
▁Rhine 462
▁medical 462
▁prevent 462
<DEPENDENCYTREEDEPTHRATIO_1.45> 461
morph 461
▁Final 461
▁Three 461
lov 460
ought 460
teen 460
ua 460
▁Fall 460
▁cut 460
▁folk 460
▁genre 460
▁marriage 460
▁materials 460
▁signal 460
for 459
plo 459
▁Ham 459
▁Mid 459
▁cover 459
▁creation 459
▁federal 459
▁monarch 459
▁murder 459
▁overall 459
▁Civil 458
▁Linux 458
▁Max 458
▁activity 458
▁prior 458
▁Dynasty 457
▁Ten 457
▁Up 457
▁Winter 457
▁auto 457
▁leaves 457
▁users 457
,3 456
98 456
agne 456
ject 456
pot 456
▁Leon 456
▁ability 456
▁borough 456
▁gives 456
▁husband 456
,5 455
ei 455
pre 455
rid 455
water 455
▁Bat 455
▁Festival 455
▁Ford 455
▁Gla 455
▁conditions 455
▁depict 455
▁varie 455
jan 454
kar 454
▁Bab 454
▁Bern 454
▁Czech 454
▁Main 454
▁broad 454
▁genetic 454
▁van 454
▁Later 453
▁characteristic 453
▁counties 453
▁foot 453
▁franchise 453
▁weeks 453
its 452
▁Jackson 452
▁extensive 452
▁my 452
▁southeast 452
13 451
eb 451
era 451
ert 451
giving 451
trop 451
▁Cri 451
▁Sydney 451
▁kilometre 451
▁raised 451
▁spring 451
▁Top 450
▁might 450
▁religion 450
▁Modern 449
▁Pennsylvania 449
▁bands 449
▁eye 449
▁Good 448
▁Sk 448
▁Stephen 448
▁Today 448
▁cur 448
▁instrument 448
▁regional 448
je 447
net 447
▁Band 447
▁minister 447
▁mythology 447
▁objects 447
▁shown 447
▁Arts 446
▁Az 445
▁Ontario 445
▁Pap 445
▁additional 445
▁bridge 445
▁combined 445
▁govern 445
▁pair 445
▁seed 445
▁unique 445
ama 444
ob 444
▁Rio 444
app 443
fo 443
wo 443
▁Dal 443
▁fair 443
▁launched 443
86 442
▁Gre 442
▁Metropolitan 442
▁Punjab 442
▁Ross 442
▁stated 442
CC 441
dorf 441
gent 441
ira 441
rew 441
star 441
ution 441
yer 441
▁32 441
▁Sel 441
▁critical 441
▁electronic 441
▁younger 441
▁Hart 440
▁Mat 440
▁Zo 440
▁course 440
▁initial 440
▁basic 439
▁controlled 439
▁goals 439
▁require 439
▁reveal 439
▁store 439
ency 438
nal 438
▁Iran 438
▁Nick 438
▁cathedral 438
▁farm 438
▁fossil 438
▁kill 438
▁pot 438
ller 437
▁Stadium 437
▁Sunday 437
▁Swiss 437
▁stone 437
99 436
sey 436
▁poly 436
▁poor 436
▁ran 436
▁translation 436
bil 435
hel 435
onia 435
▁End 435
▁get 435
▁lives 435
RA 434
ula 434
yn 434
▁Anne 434
▁Tan 434
▁designat 434
rom 433
▁1918 433
▁Cambridge 433
▁Tru 433
▁domestic 433
▁tax 433
▁troops 433
cation 432
cin 432
dor 432
▁Av 432
▁covers 432
▁employ 432
▁occurs 432
▁permanent 432
etic 431
▁Lincoln 431
▁extend 431
▁news 431
ér 430
▁Hay 430
▁greater 430
▁hill 430
▁leaving 430
▁sal 430
▁1936 429
▁1942 429
▁Ash 429
▁Both 429
▁Hot 429
▁Jersey 429
▁Singapore 429
▁closely 429
▁density 429
▁diameter 429
▁difficult 429
▁roll 429
▁split 429
85 428
Q 428
ora 428
▁bin 428
▁compris 428
▁convert 428
▁exception 428
part 427
▁Ang 427
▁Earl 427
▁Federation 427
▁Mississippi 427
▁classified 427
▁enough 427
▁1943 426
▁Ball 426
▁Mas 426
▁call 426
▁hair 426
▁intended 426
24 425
run 425
▁Power 425
▁circuit 425
▁establish 425
▁mammal 425
▁tournament 425
88 424
bach 424
▁1941 424
▁Ac 424
▁Mass 424
▁Nam 424
▁artists 424
▁electro 424
▁grow 424
▁FIFA 423
▁Massachusetts 423
▁Symphony 423
▁foreign 423
▁meeting 423
▁notably 423
▁rules 423
ability 422
ky 422
ngel 422
° 422
▁70 422
▁Chief 422
▁Matt 422
▁card 422
▁flat 422
▁h 422
▁potential 422
▁problems 422
▁respectively 422
anda 421
graph 421
pod 421
å 421
æ 421
▁Tar 421
▁Treaty 421
▁destroyed 421
▁fine 421
▁hold 421
▁master 421
▁obtain 421
dal 420
▁believe 420
▁burn 420
▁executive 420
▁levels 420
▁mission 420
▁sex 420
gla 419
▁Greater 419
▁Kong 419
▁Mountains 419
▁Work 419
▁emerg 419
▁retain 419
▁span 419
▁talk 419
▁watch 419
central 418
hl 418
spired 418
▁Cap 418
▁Kal 418
▁script 418
▁weather 418
35 417
hara 417
horn 417
wich 417
zz 417
▁Bad 417
▁Israel 417
▁address 417
▁behavior 417
▁ro 417
ides 416
▁perform 416
▁purpose 416
▁turned 416
cies 415
struc 415
▁Channel 415
▁Coast 415
▁Trans 415
▁height 415
▁pan 415
▁prime 415
▁surviv 415
acy 414
ür 414
▁alphabet 414
▁formation 414
▁mill 414
▁money 414
▁philosopher 414
▁trees 414
66 413
board 413
ping 413
▁expect 413
▁score 413
▁warm 413
▁Del 412
▁Who 412
▁breed 412
▁engineering 412
▁forced 412
▁rose 412
▁winter 412
95 411
▁Die 411
▁Islamic 411
▁Jam 411
▁That 411
▁cancer 411
▁contrast 411
▁flood 411
▁policy 411
▁tea 411
▁whether 411
dale 410
imp 410
more 410
where 410
▁Before 410
▁cal 410
▁experiment 410
▁operate 410
▁places 410
ero 409
tar 409
▁Member 409
▁path 409
▁philosophy 409
▁piece 409
ctic 408
▁Hawaii 408
▁claimed 408
▁lit 408
▁mono 408
▁programs 408
ico 407
rat 407
▁Denmark 407
▁Picture 407
▁extra 407
▁motor 407
▁plate 407
▁reason 407
▁resulting 407
az 406
▁1900 406
▁Each 406
▁Jan 406
▁birds 406
▁reform 406
▁secret 406
▁solid 406
cra 405
gram 405
ock 405
▁Anna 405
▁Bavaria 405
▁Conference 405
▁Family 405
▁chain 405
▁identified 405
▁mean 405
▁organized 405
▁strip 405
gal 404
pect 404
▁Francis 404
▁Key 404
▁List 404
▁Pal 404
▁Wil 404
▁companies 404
▁regard 404
29 403
▁Reich 403
▁Sim 403
▁Thi 403
▁] 403
▁covered 403
▁inside 403
▁therefore 403
-2 402
pon 402
▁Bull 402
▁Islam 402
▁aircraft 402
▁cold 402
▁contest 402
▁die 402
▁manag 402
▁medal 402
▁technology 402
aya 401
ball 401
lit 401
mir 401
▁Sand 401
▁Stanley 401
▁festival 401
▁songwriter 401
▁transport 401
atory 400
chu 400
dan 400
▁Peninsula 400
▁Steve 400
▁coin 400
▁cycle 400
▁featuring 400
▁finished 400
▁flower 400
▁originated 400
cen 399
pho 399
▁1933 399
▁1937 399
▁500 399
▁Bible 399
▁Castle 399
▁Lar 399
▁belief 399
▁bus 399
▁flight 399
▁friends 399
Man 398
gate 398
urg 398
▁1951 398
▁Girl 398
▁earthquake 398
▁grand 398
▁idea 398
▁reaction 398
▁slow 398
kept 397
▁Joe 397
▁[ 397
▁depression 397
▁document 397
▁earned 397
▁founding 397
▁instruction 397
yne 396
▁Ye 396
▁baseball 396
▁combination 396
aga 395
▁Borough 395
▁Frederick 395
▁Kelly 395
▁Princess 395
▁clubs 395
▁descend 395
▁drum 395
▁internal 395
▁kingdom 395
▁pl 395
▁student 395
cell 394
▁Corporation 394
▁Opera 394
▁acquir 394
▁matches 394
▁occurred 394
▁rich 394
ivity 393
▁Another 393
▁Jane 393
▁Marie 393
▁Monte 393
▁PC 393
▁adapt 393
▁receive 393
▁speech 393
gy 392
script 392
▁Saxony 392
▁build 392
▁console 392
▁département 392
▁likely 392
▁mode 392
▁vocalist 392
▁zone 392
<WORDRANKRATIO_1.55> 391
ique 391
▁Hav 391
▁Roger 391
▁Rub 391
▁airport 391
▁comprises 391
▁powerful 391
lat 390
▁achieved 390
▁completely 390
▁constant 390
▁dynasty 390
▁incorporated 390
▁slightly 390
33 389
▁Michel 389
▁fall 389
▁families 389
▁learn 389
▁your 389
▁1938 388
▁MP 388
▁Milan 388
▁Service 388
▁ju 388
▁professor 388
ami 387
▁Bureau 387
▁Seven 387
▁Son 387
▁Though 387
▁Wild 387
▁sentence 387
▁specifically 387
aging 386
hin 386
rian 386
▁Baseball 386
▁Classic 386
▁Gor 386
▁Heart 386
▁Mr 386
▁Toronto 386
▁Turkey 386
▁basis 386
▁drink 386
enberg 385
hor 385
room 385
ú 385
▁Arab 385
▁Michigan 385
▁Orthodox 385
▁forward 385
▁individuals 385
▁pattern 385
▁succeeded 385
▁trains 385
32 384
American 384
cut 384
hand 384
ific 384
▁Brand 384
▁arts 384
▁comic 384
▁exchange 384
▁influential 384
▁rivers 384
42 383
hol 383
} 383
▁Order 383
▁communication 383
▁fully 383
▁society 383
▁solution 383
▁wall 383
▁Ann 382
▁Garden 382
▁conflict 382
44 381
▁1929 381
▁Hungary 381
▁cm 381
▁dedicat 381
▁mixed 381
▁sand 381
ault 380
ify 380
▁Barb 380
▁Chile 380
▁Film 380
▁Hum 380
▁Pass 380
▁compet 380
▁drummer 380
▁fashion 380
▁pet 380
▁remaining 380
▁search 380
-20 379
96 379
agh 379
shaped 379
▁Tokyo 379
▁applications 379
▁conducted 379
▁episodes 379
▁extended 379
▁response 379
fra 378
lio 378
ody 378
pin 378
tress 378
▁Asian 378
▁DNA 378
▁Fame 378
▁Ir 378
▁Jim 378
▁Light 378
▁effects 378
▁skin 378
ith 377
▁Down 377
▁EP 377
▁Indiana 377
▁Know 377
▁Pop 377
▁angle 377
▁listed 377
▁message 377
▁online 377
▁victory 377
▁weight 377
feld 376
mmer 376
tha 376
zu 376
▁1919 376
▁Also 376
▁conduct 376
▁confirm 376
▁logic 376
▁mathematics 376
▁pick 376
▁violin 376
▁ways 376
lot 375
yr 375
▁Master 375
▁concern 375
▁global 375
▁presented 375
ably 374
cial 374
len 374
nia 374
▁Greece 374
▁Rose 374
▁bound 374
▁houses 374
▁letters 374
▁stand 374
▁traditionally 374
ré 373
ç 373
▁Pen 373
▁audience 373
▁contemporary 373
▁lyrics 373
▁strength 373
▁usage 373
▁1934 372
▁Mau 372
▁Moscow 372
▁Protestant 372
▁escape 372
▁liquid 372
▁reflect 372
▁Cer 371
▁Sound 371
▁closed 371
▁holds 371
▁municipalities 371
▁prison 371
▁sil 371
▁twice 371
lop 370
nor 370
oma 370
teau 370
▁Minnesota 370
▁Of 370
38 369
ava 369
ida 369
ogen 369
via 369
▁1912 369
▁App 369
▁Space 369
▁Turkish 369
▁_ 369
▁bodies 369
▁captain 369
▁increased 369
▁log 369
▁motion 369
▁rep 369
91 368
osis 368
▁1932 368
▁Bol 368
▁Death 368
▁Found 368
▁Kashmir 368
▁acts 368
▁avoid 368
▁goalkeeper 368
▁milk 368
▁perhaps 368
▁target 368
▁twelve 368
active 367
▁Billboard 367
▁Dominican 367
▁Ky 367
▁instruments 367
▁joint 367
▁leave 367
▁mineral 367
▁plain 367
ello 366
nut 366
▁NFL 366
▁Peace 366
▁indicate 366
▁our 366
▁results 366
▁room 366
rap 365
▁Kansas 365
▁Office 365
▁basketball 365
▁core 365
▁crown 365
▁maintain 365
▁selected 365
ika 364
my 364
▁Armenia 364
▁Ste 364
▁awards 364
▁chess 364
▁secondary 364
▁separated 364
28 363
78 363
eur 363
▁Rob 363
▁Roll 363
▁attract 363
▁fun 363
▁graduat 363
▁organis 363
▁partner 363
▁supported 363
▁training 363
card 362
▁Constitution 362
▁Dream 362
▁Post 362
▁agent 362
▁opposite 362
▁stock 362
Ch 361
ral 361
▁Ancient 361
▁explor 361
▁headquarters 361
▁territories 361
▁titled 361
ili 360
▁2011 360
▁extinct 360
▁historic 360
▁observed 360
▁picture 360
▁ruler 360
chan 359
hem 359
itation 359
songwriter 359
▁Fair 359
▁Science 359
▁note 359
▁tube 359
▁Clark 358
▁Madrid 358
▁Motor 358
▁Public 358
▁buri 358
▁teaching 358
▁try 358
▁visit 358
ough 357
zy 357
▁capacity 357
▁classic 357
▁der 357
▁drug 357
▁equivalent 357
▁fields 357
▁promotion 357
26 356
CE 356
fish 356
▁Arabic 356
▁Bart 356
▁Rail 356
▁Taylor 356
▁limit 356
▁nor 356
kov 355
nel 355
ott 355
▁Doctor 355
▁Fin 355
▁activities 355
▁historian 355
▁look 355
▁minutes 355
▁surround 355
uri 354
▁Bowl 354
▁Cle 354
▁Lin 354
▁context 354
▁el 354
▁officer 354
▁principle 354
crat 353
iti 353
▁Dol 353
▁Lau 353
▁Munich 353
▁custom 353
▁impact 353
23 352
76 352
arm 352
cla 352
type 352
▁Alabama 352
▁Est 352
▁Times 352
▁done 352
▁garden 352
▁normally 352
▁sales 352
▁shot 352
state 351
▁Real 351
▁attach 351
▁contact 351
▁feed 351
▁meta 351
▁narrow 351
▁substance 351
75 350
▁64 350
▁Bob 350
▁Bru 350
▁Front 350
▁ban 350
▁growing 350
▁iron 350
▁rail 350
▁suffer 350
gna 349
position 349
win 349
zer 349
▁Mah 349
▁soft 349
aki 348
▁Imperial 348
▁administration 348
▁alongside 348
▁demand 348
▁dry 348
▁follows 348
▁guest 348
▁inform 348
▁medium 348
▁pioneer 348
cum 347
nan 347
rod 347
▁51 347
▁Alaska 347
▁Caribbean 347
▁Category 347
▁Human 347
▁Kara 347
▁Kim 347
▁alone 347
▁ending 347
▁entirely 347
▁mentioned 347
▁nominated 347
▁spot 347
27 346
bur 346
gh 346
▁Fu 346
▁Jon 346
▁Karl 346
▁Neu 346
▁atomic 346
▁authority 346
▁bird 346
▁campus 346
▁connected 346
▁eleven 346
▁prince 346
▁shell 346
39 345
post 345
▁Hamilton 345
▁Station 345
▁electron 345
▁seventh 345
▁step 345
FC 344
cop 344
maker 344
ote 344
ulf 344
Ñ 344
▁1924 344
▁Highway 344
▁Wor 344
▁attacks 344
▁figures 344
▁fuel 344
▁plan 344
▁presence 344
▁sav 344
▁1901 343
▁Gil 343
▁Mediterranean 343
▁Network 343
▁Spring 343
▁Upper 343
▁Williams 343
▁bone 343
▁defend 343
▁draft 343
ag 342
elli 342
life 342
mond 342
▁1935 342
▁Brian 342
▁Director 342
▁Justice 342
▁Kat 342
▁expansion 342
▁newly 342
▁physics 342
▁transfer 342
blo 341
▁Centre 341
▁Juan 341
▁Portugal 341
▁Rad 341
▁Wilhelm 341
▁designation 341
▁eat 341
▁ends 341
▁solar 341
5,000 340
book 340
rac 340
raw 340
▁Adams 340
▁Back 340
▁Grammy 340
▁Sav 340
▁Shan 340
▁Wolf 340
▁commission 340
▁financial 340
▁property 340
▁seem 340
34 339
Ar 339
▁Beau 339
▁Cold 339
▁causes 339
▁functions 339
▁photo 339
▁purposes 339
▁rare 339
▁request 339
core 338
gio 338
▁? 338
▁Gun 338
▁Library 338
▁Wilson 338
▁bright 338
▁churches 338
▁punk 338
▁representing 338
▁soil 338
uv 337
▁Gall 337
▁Mill 337
▁arms 337
▁engineer 337
▁pieces 337
▁stop 337
pan 336
▁Foundation 336
▁Kir 336
▁Simon 336
▁couple 336
▁follow 336
▁parish 336
▁possibly 336
▁rat 336
▁technical 336
gie 335
{ 335
▁Danish 335
▁Women 335
▁XI 335
▁acting 335
▁category 335
▁classification 335
▁hands 335
▁involve 335
▁medieval 335
▁shared 335
▁tourist 335
ather 334
dar 334
hard 334
▁Social 334
▁add 334
▁agreement 334
▁immediately 334
▁insect 334
▁marked 334
▁prop 334
▁refus 334
gli 333
ien 333
▁Christmas 333
▁Jones 333
▁Wei 333
▁differ 333
▁flows 333
▁layer 333
▁premier 333
MI 332
uka 332
▁Argentina 332
▁Hindu 332
▁decision 332
▁metres 332
▁plane 332
▁setting 332
▁silver 332
22 331
aka 331
cio 331
rup 331
▁Steven 331
▁existence 331
▁killing 331
rant 330
▁33 330
▁Shin 330
▁brothers 330
▁challenge 330
▁derive 330
▁interview 330
▁mountains 330
▁sail 330
CA 329
ada 329
onne 329
▁Antarctic 329
▁epi 329
▁speak 329
▁structures 329
▁successor 329
isation 328
lk 328
▁1927 328
▁Lower 328
▁Special 328
▁Walter 328
▁cost 328
▁crime 328
▁dispute 328
▁pilot 328
▁syn 328
▁tracks 328
née 327
ridge 327
▁Eli 327
▁Mess 327
▁Square 327
▁bas 327
▁castle 327
▁earth 327
▁evolution 327
▁yet 327
▁youth 327
nce 326
quit 326
▁75 326
▁Palace 326
▁Research 326
▁edge 326
▁pianist 326
▁positive 326
▁rival 326
▁teacher 326
▁tend 326
eva 325
utonomous 325
wall 325
▁1914 325
▁Apple 325
▁Cher 325
▁Colorado 325
▁Has 325
▁Mag 325
▁Thur 325
▁floor 325
▁problem 325
▁selection 325
▁Abbey 324
▁Bon 324
▁Kre 324
▁Not 324
▁Robinson 324
▁hydro 324
▁images 324
▁mainland 324
▁sat 324
82 323
ander 323
mel 323
▁Interstate 323
▁Johnson 323
▁Lou 323
▁Palm 323
▁evolved 323
▁glass 323
▁museum 323
▁powers 323
▁things 323
31 322
cl 322
ule 322
▁Bangladesh 322
▁Hong 322
▁Pur 322
▁Sh 322
▁Shar 322
▁visible 322
TA 321
met 321
plat 321
reg 321
▁1910 321
▁Last 321
▁Wind 321
▁chosen 321
▁circle 321
▁comput 321
▁min 321
▁sing 321
▁speaker 321
61 320
tier 320
▁1922 320
▁1925 320
▁celebrated 320
▁harm 320
▁question 320
OC 319
adi 319
▁Anton 319
▁Hans 319
▁Jen 319
▁Short 319
▁Sports 319
▁Vietnam 319
▁effective 319
▁operations 319
▁universe 319
▁Christianity 318
▁Mike 318
▁Saturday 318
▁Way 318
▁attention 318
▁normal 318
▁parliament 318
▁promot 318
wer 317
▁Lang 317
▁assign 317
▁ethnic 317
▁laws 317
▁peace 317
▁succeed 317
43 316
rick 316
▁1926 316
▁Coll 316
▁Lind 316
▁Several 316
▁bottom 316
▁mosque 316
46 315
84 315
burn 315
level 315
lid 315
ona 315
▁Christopher 315
▁Norway 315
▁Titan 315
▁decade 315
▁explain 315
▁foundation 315
▁ste 315
ident 314
place 314
▁Finland 314
▁Lan 314
▁Prussia 314
▁Theatre 314
▁cloud 314
▁decades 314
▁rural 314
▁senior 314
▁vo 314
\* 313
vision 313
zon 313
▁Base 313
▁Dark 313
▁Il 313
▁Mol 313
▁appearances 313
▁application 313
▁coastal 313
▁fight 313
▁straight 313
▁throne 313
▁youngest 313
47 312
Co 312
right 312
▁Burg 312
▁Fr 312
▁detect 312
▁press 312
▁severe 312
▁stream 312
▁suggested 312
logy 311
odi 311
▁1923 311
▁Kin 311
▁Note 311
▁Yorkshire 311
▁creat 311
▁giant 311
▁por 311
▁suit 311
anthrop 310
ddy 310
ij 310
izing 310
▁Alex 310
▁Benjamin 310
▁Cop 310
▁Metro 310
▁condition 310
▁contained 310
▁facilit 310
▁fellow 310
▁flavor 310
▁hop 310
▁musicians 310
▁sites 310
65 309
titut 309
under 309
▁300 309
▁Argentine 309
▁Committee 309
▁Ottoman 309
▁Philadelphia 309
▁Ray 309
▁Slav 309
▁enjoy 309
▁forest 309
▁formally 309
▁hu 309
▁moment 309
▁organizations 309
▁sons 309
AA 308
SA 308
media 308
▁Mak 308
▁Pet 308
▁big 308
▁eggs 308
▁failed 308
▁hall 308
▁ill 308
▁issues 308
▁job 308
▁mechanical 308
▁observ 308
▁performing 308
▁scored 308
▁sovereign 308
▁ver 308
77 307
kh 307
▁Gon 307
▁Senate 307
▁cool 307
▁extremely 307
▁methods 307
▁ships 307
▁traffic 307
64 306
lle 306
point 306
▁38 306
▁Sen 306
▁going 306
▁governor 306
▁situation 306
▁unusual 306
stadt 305
work 305
▁Cass 305
▁Dave 305
▁Egyptian 305
▁Fra 305
▁Ly 305
▁Mexican 305
▁Mountain 305
▁Navy 305
▁Tur 305
▁entry 305
▁eyes 305
▁hip 305
▁ideas 305
▁magnitude 305
▁observation 305
▁operation 305
▁stretch 305
▁vary 305
TV 304
cious 304
rop 304
▁Auto 304
▁Hollywood 304
▁Surviv 304
▁Territory 304
▁VI 304
▁phrase 304
▁sequence 304
eve 303
moto 303
▁Field 303
▁Forest 303
▁Hitler 303
▁Montreal 303
▁grown 303
▁invit 303
▁reproduc 303
▁typical 303
naut 302
▁1928 302
▁Adam 302
▁Alfred 302
▁Among 302
▁Florence 302
▁Pala 302
▁Swa 302
▁Vice 302
▁charge 302
▁measure 302
▁properties 302
bun 301
round 301
▁Ant 301
▁Education 301
▁Rain 301
▁Supreme 301
▁graphic 301
▁jazz 301
▁parent 301
▁representative 301
▁temporary 301
▁visual 301
▁walk 301
chlor 300
iano 300
▁1908 300
▁Barr 300
▁Bengal 300
▁Labor 300
▁PlayStation 300
▁Triple 300
▁actual 300
▁economy 300
▁loss 300
▁mag 300
▁paint 300
▁prize 300
▁something 300
urge 299
▁Assembly 299
▁Friday 299
▁distributed 299
▁inhabit 299
▁sin 299
▁ski 299
col 298
iff 298
▁Hil 298
▁Moon 298
▁Pin 298
▁plot 298
▁sugar 298
93 297
lash 297
last 297
pet 297
ree 297
rio 297
▁Arabia 297
▁Birmingham 297
▁Matthew 297
▁Samuel 297
▁aim 297
▁manufactur 297
▁protein 297
In 296
pol 296
vic 296
▁Hand 296
▁Simpson 296
▁boundary 296
▁daily 296
▁electrical 296
▁extreme 296
▁fer 296
▁horse 296
▁marine 296
▁trial 296
▁vol 296
bia 295
llen 295
tique 295
titude 295
▁Head 295
▁Taiwan 295
▁estimate 295
▁management 295
▁medicine 295
▁serious 295
▁villages 295
ming 294
▁Zone 294
▁fame 294
▁sets 294
▁soldiers 294
▁tail 294
hood 293
illo 293
▁Baron 293
▁Euro 293
▁colonial 293
▁comedian 293
▁memory 293
▁think 293
▁variation 293
ado 292
duction 292
▁1911 292
▁Bernard 292
▁Captain 292
▁Fred 292
▁bassist 292
▁communities 292
▁descent 292
74 291
cene 291
▁Gene 291
▁Harrison 291
▁Magn 291
▁Rat 291
▁affect 291
▁fans 291
▁feel 291
▁literary 291
▁opposed 291
▁programming 291
iya 290
tral 290
tte 290
vil 290
▁Derby 290
▁bill 290
▁boy 290
▁dialect 290
▁mathematician 290
▁occasionally 290
▁technique 290
▁values 290
bow 289
rang 289
▁Brad 289
▁Charlotte 289
▁Hungarian 289
▁Sur 289
▁Virgin 289
▁bacteria 289
▁dating 289
▁molecule 289
▁morning 289
▁sides 289
▁transferred 289
▁wine 289
but 288
ensis 288
hill 288
lain 288
spread 288
▁Ag 288
▁Ever 288
▁Late 288
▁cars 288
▁depend 288
▁guard 288
▁preserv 288
▁residents 288
aught 287
cri 287
▁Community 287
▁Cou 287
▁Language 287
▁Qui 287
▁Racing 287
▁analog 287
▁annually 287
▁care 287
▁journalist 287
▁seek 287
bla 286
hop 286
lag 286
lau 286
mail 286
zza 286
▁150 286
▁Jeff 286
▁Jews 286
▁Lyn 286
▁Media 286
▁Rud 286
▁Sab 286
▁aid 286
▁captured 286
▁selling 286
72 285
▁34 285
▁Dy 285
▁Friedrich 285
▁Kon 285
▁Ministry 285
▁Studios 285
▁Tower 285
▁entitled 285
▁firm 285
▁keyboard 285
dio 284
nar 284
ost 284
▁Jefferson 284
▁Jun 284
▁astronomer 284
▁beach 284
▁column 284
▁twin 284
century 283
ware 283
▁Der 283
▁Six 283
▁alter 283
▁bring 283
▁claims 283
▁essential 283
▁fast 283
▁know 283
comp 282
▁Iraq 282
▁capture 282
▁conference 282
▁meat 282
▁peninsula 282
▁treatment 282
ON 281
cock 281
weight 281
▁Cook 281
▁Diego 281
▁Ker 281
▁What 281
▁existing 281
▁genera 281
▁mm 281
▁percent 281
▁sole 281
▁universities 281
ddle 280
shima 280
tting 280
▁1916 280
▁42 280
▁Berg 280
▁Knight 280
▁Mari 280
▁belt 280
▁clock 280
▁connection 280
▁license 280
▁mini 280
▁op 280
▁quot 280
▁rhythm 280
▁shore 280
TC 279
hold 279
hra 279
pat 279
▁1921 279
▁Arizona 279
▁Commission 279
▁Lewis 279
▁Qua 279
▁Vancouver 279
▁fur 279
▁occupied 279
awa 278
olo 278
▁Bour 278
▁Cow 278
▁Gri 278
▁Norwegian 278
▁got 278
▁locomotive 278
▁maximum 278
▁phase 278
▁plastic 278
▁restaurant 278
▁send 278
▁sleep 278
59 277
▁Guinea 277
▁Kam 277
▁paintings 277
▁parties 277
79 276
83 276
asi 276
oper 276
phon 276
▁How 276
▁Kor 276
▁Philippines 276
▁Whi 276
▁chamber 276
▁colony 276
▁fiber 276
▁municipal 276
▁recover 276
▁security 276
▁snow 276
▁thick 276
<WORDRANKRATIO_0.55> 275
arrow 275
▁Bear 275
▁Beatles 275
▁Renaissance 275
▁Well 275
▁chocolate 275
▁defense 275
▁goddess 275
▁hour 275
▁labor 275
▁sum 275
▁unlike 275
▁worship 275
PS 274
bat 274
chin 274
ffe 274
vat 274
vy 274
▁Barcelona 274
▁Bishop 274
▁Burn 274
▁Cel 274
▁Lev 274
▁Lim 274
▁Mayor 274
▁Monday 274
▁Serie 274
▁Sport 274
▁Wisconsin 274
▁processes 274
▁rarely 274
▁singing 274
▁subdivision 274
MS 273
ators 273
▁NBA 273
▁Pittsburgh 273
▁Puerto 273
▁Security 273
▁Shah 273
▁Tibet 273
▁agreed 273
▁architect 273
▁brown 273
▁correct 273
▁freedom 273
▁quarter 273
▁races 273
▁radiation 273
▁wear 273
71 272
gger 272
speaking 272
ün 272
▁Children 272
▁Conservative 272
▁Spi 272
▁Standard 272
▁easily 272
▁else 272
▁empire 272
▁instance 272
▁session 272
▁staff 272
▁writers 272
dig 271
gle 271
hall 271
zen 271
▁36 271
▁Cli 271
▁Eric 271
▁Pont 271
▁Republican 271
▁Sto 271
▁bad 271
▁hospital 271
▁importance 271
▁movies 271
mark 270
master 270
▁Caesar 270
▁Dra 270
▁Mai 270
▁Midland 270
▁Muhammad 270
▁Point 270
▁Socialist 270
▁acclaim 270
▁degrees 270
▁fan 270
▁habitat 270
62 269
ati 269
direct 269
eau 269
pop 269
ract 269
tical 269
▁1917 269
▁400 269
▁65 269
▁Hell 269
▁Pyr 269
▁SS 269
▁Ty 269
▁VII 269
▁anthem 269
▁attribut 269
▁biology 269
▁characterized 269
▁depending 269
▁failure 269
▁jump 269
▁loose 269
▁manufacturer 269
▁reduced 269
kins 268
rm 268
tell 268
▁Afghanistan 268
▁Bir 268
▁Creek 268
▁Hebrew 268
▁Hills 268
▁Miss 268
▁Organization 268
▁Run 268
▁Uni 268
▁continuous 268
▁expression 268
▁hence 268
▁poem 268
▁wheel 268
68 267
ME 267
enstein 267
get 267
▁Bow 267
▁Clo 267
▁Disc 267
▁Ferdinand 267
▁Gabriel 267
▁Geneva 267
▁Micro 267
▁Tele 267
▁counter 267
▁erect 267
▁involving 267
49 266
▁41 266
▁Ak 266
▁Liverpool 266
▁Professor 266
▁Underground 266
▁accompani 266
▁biggest 266
▁ear 266
▁flowers 266
▁gradual 266
▁hydrogen 266
lob 265
wise 265
▁Advanc 265
▁Country 265
▁Iron 265
▁Thus 265
▁Your 265
▁brief 265
▁clean 265
▁guide 265
▁models 265
▁recognition 265
▁taught 265
▁tried 265
ibb 264
print 264
▁Esp 264
▁Miller 264
▁Potter 264
▁Quebec 264
▁designer 264
▁devices 264
▁extension 264
▁mix 264
▁oxygen 264
▁relations 264
▁respect 264
▁specializ 264
onym 263
race 263
▁Ent 263
▁Isle 263
▁Plan 263
▁Stock 263
▁crystal 263
▁fresh 263
▁radi 263
▁row 263
▁thin 263
ave 262
gun 262
rig 262
tech 262
wel 262
▁Detroit 262
▁Development 262
▁Missouri 262
▁Vale 262
▁fit 262
▁girl 262
▁owner 262
▁quality 262
▁tele 262
69 261
AT 261
ingham 261
odor 261
▁Gate 261
▁Player 261
▁Warner 261
▁contributions 261
▁invasion 261
▁necessary 261
▁reaching 261
▁steel 261
▁weapons 261
,500 260
48 260
▁1913 260
▁Silver 260
▁bond 260
▁eliminat 260
▁hero 260
▁holding 260
▁weaken 260
RS 259
box 259
gran 259
▁Anthony 259
▁Antonio 259
▁Darwin 259
▁Flor 259
▁Historical 259
▁Mun 259
▁Temple 259
▁academic 259
▁arc 259
▁collapse 259
▁convict 259
▁hundred 259
▁launch 259
▁projects 259
▁replace 259
▁shift 259
<WORDRANKRATIO_1.6> 258
path 258
ters 258
winning 258
▁1903 258
▁Concert 258
▁Due 258
▁Heritage 258
▁Indo 258
▁Lithuania 258
▁Sarah 258
▁Schu 258
▁VIII 258
▁briefly 258
▁broke 258
▁protection 258
▁quite 258
▁reli 258
▁renown 258
▁restor 258
55 257
are 257
▁About 257
▁Lion 257
▁Police 257
▁client 257
▁determined 257
▁organic 257
▁output 257
▁positions 257
▁sell 257
ß 256
▁1931 256
▁Allen 256
▁Article 256
▁Fur 256
▁Get 256
▁MTV 256
▁Patrick 256
▁Zi 256
▁dish 256
▁dominat 256
▁drawing 256
▁mathematical 256
▁reading 256
▁republic 256
▁stands 256
▁tributar 256
81 255
gel 255
phone 255
rel 255
▁Finnish 255
▁Haiti 255
▁Ian 255
▁Pierre 255
▁Ple 255
▁Turk 255
▁authorities 255
▁boat 255
▁collective 255
▁demonstrat 255
▁onto 255
▁plann 255
▁reserve 255
▁storage 255
gam 254
ograph 254
▁Alexandr 254
▁Cru 254
▁Westminster 254
▁detail 254
▁institutions 254
▁roots 254
▁tissue 254
▁transform 254
Between 253
tail 253
ön 253
▁Ful 253
▁Local 253
▁Sri 253
▁arm 253
▁crash 253
▁negative 253
▁notes 253
▁provision 253
▁standing 253
ential 252
ink 252
oh 252
▁Carlos 252
▁Shaw 252
▁dam 252
▁producing 252
▁vertical 252
ima 251
pra 251
▁Helen 251
▁Kra 251
▁Phoenix 251
▁Rich 251
▁Tony 251
▁Unlike 251
▁activist 251
▁atmosphere 251
▁coat 251
▁mayor 251
▁prayer 251
▁reality 251
▁talent 251
atus 250
ging 250
rab 250
rou 250
uf 250
▁37 250
▁Adventure 250
▁Franco 250
▁Kennedy 250
▁Napoleon 250
▁Nar 250
▁analysis 250
▁determine 250
▁fluid 250
▁fundamental 250
▁leadership 250
▁segment 250
▁supply 250
67 249
▁Franklin 249
▁Medicine 249
▁Reform 249
▁arrived 249
▁beyond 249
▁coming 249
▁encounter 249
▁fantasy 249
▁passenger 249
▁relat 249
▁statement 249
▁switch 249
▁throw 249
ES 248
ancy 248
ison 248
mouth 248
nik 248
▁Independence 248
▁Peru 248
▁Villa 248
▁kilometer 248
lf 247
made 247
ntil 247
rn 247
roll 247
Ë 247
▁1865 247
▁Alice 247
▁Bla 247
▁Every 247
▁Glasgow 247
▁confused 247
▁disorder 247
▁fat 247
▁reasons 247
▁subtropic 247
57 246
omi 246
▁39 246
▁Byzantine 246
▁Call 246
▁Father 246
▁Howard 246
▁Junior 246
▁Prior 246
▁Xbox 246
▁door 246
▁grass 246
▁hydr 246
▁maintained 246
▁myth 246
▁pitch 246
▁underground 246
▁vehicle 246
▁weak 246
ech 245
▁1890 245
▁Corn 245
▁Kid 245
▁Project 245
▁brain 245
▁crew 245
▁opposition 245
▁server 245
▁touch 245
▁tower 245
▁unknown 245
▁wish 245
ception 244
gui 244
riv 244
zan 244
▁Alan 244
▁Crown 244
▁Here 244
▁Jose 244
▁critics 244
▁improv 244
▁painting 244
▁publication 244
▁uniform 244
aire 243
asa 243
berry 243
clo 243
fort 243
test 243
▁Basil 243
▁Chancellor 243
▁bishop 243
▁favor 243
▁heavily 243
▁noble 243
ature 242
eaten 242
issa 242
▁Alp 242
▁Fan 242
▁Que 242
▁Rangers 242
▁adaptation 242
▁climb 242
▁encompass 242
▁fighting 242
▁leaders 242
▁monument 242
▁option 242
capable 241
iva 241
lé 241
▁Anglo 241
▁Gaelic 241
▁Indonesia 241
▁Leonard 241
▁Marshall 241
▁otherwise 241
▁playoff 241
▁price 241
▁thousands 241
BA 240
aria 240
ben 240
ovich 240
worm 240
▁43 240
▁Jacob 240
▁Java 240
▁UN 240
▁Video 240
▁corner 240
▁judge 240
▁meters 240
▁nomination 240
▁rang 240
BC 239
gawa 239
kel 239
quest 239
▁1902 239
▁Current 239
▁Def 239
▁Gran 239
▁Ji 239
▁Jordan 239
▁Link 239
▁attempts 239
▁classes 239
▁compete 239
▁dancer 239
▁equipment 239
▁holiday 239
▁magic 239
▁poetry 239
▁rating 239
▁treat 239
▁virus 239
▁wire 239
cap 238
wl 238
▁1895 238
▁Iceland 238
▁Record 238
▁advantage 238
▁cult 238
▁implement 238
▁lay 238
▁legend 238
▁techniques 238
RI 237
liga 237
ê 237
ín 237
▁1904 237
▁Communist 237
▁Draft 237
▁Lor 237
▁Production 237
▁Statistics 237
▁Taka 237
▁chance 237
▁coffee 237
▁description 237
▁manner 237
▁massive 237
▁stay 237
▁tennis 237
▁walls 237
quin 236
▁1905 236
▁Ivan 236
▁Kill 236
▁Memorial 236
▁affected 236
▁covering 236
▁debate 236
▁establishment 236
▁geographical 236
▁meant 236
▁possess 236
▁pure 236
▁settled 236
mun 235
uki 235
▁1915 235
▁Baptist 235
▁Lawrence 235
▁Petr 235
▁Television 235
▁Trophy 235
▁UEFA 235
▁ancestor 235
▁attain 235
▁neighbor 235
▁passing 235
▁screen 235
down 234
ophil 234
▁Arkansas 234
▁Bruce 234
▁Olympia 234
▁Site 234
▁Yama 234
▁armed 234
▁concentrat 234
▁draw 234
▁external 234
▁immun 234
▁invad 234
▁library 234
▁opt 234
▁saying 234
▁steam 234
▁treaty 234
uku 233
ulation 233
▁48 233
▁Century 233
▁Elect 233
▁Five 233
▁Third 233
▁Zu 233
▁arrang 233
▁bed 233
▁biological 233
▁copy 233
▁inherit 233
▁items 233
▁knowledge 233
▁palace 233
▁variant 233
▁visited 233
bird 232
cil 232
hua 232
pit 232
▁Chu 232
▁Edinburgh 232
▁Graham 232
▁Hawk 232
▁Serv 232
▁branche 232
▁choice 232
▁concentration 232
▁cousin 232
▁desert 232
▁eighth 232
▁elections 232
▁perfect 232
▁phone 232
▁resort 232
▁review 232
▁temple 232
▁vehicles 232
att 231
ibility 231
lane 231
rank 231
rill 231
▁1891 231
▁55 231
▁Cuba 231
▁Jerusalem 231
▁Unit 231
▁absorb 231
▁beat 231
▁catch 231
▁pole 231
▁resources 231
73 230
iel 230
▁1906 230
▁Metal 230
▁Rou 230
▁Thr 230
▁constitut 230
▁defensive 230
▁dropped 230
▁income 230
▁ingredient 230
▁lens 230
▁pool 230
▁priest 230
▁publisher 230
▁zoo 230
RNA 229
commun 229
either 229
scope 229
▁1907 229
▁Bach 229
▁Dick 229
▁Ry 229
▁administer 229
▁component 229
▁dominant 229
▁exclusively 229
▁fell 229
▁northeastern 229
▁politics 229
▁purchas 229
▁spirit 229
▁stem 229
▁thirteen 229
▁tram 229
ali 228
oke 228
▁Blo 228
▁Buck 228
▁Chapel 228
▁Heavyweight 228
▁Seattle 228
▁Testament 228
▁agency 228
▁belonging 228
▁hypo 228
▁institution 228
▁occupation 228
▁resistance 228
ière 227
▁1882 227
▁Billy 227
▁Shu 227
▁bat 227
▁boundaries 227
▁fertil 227
▁pack 227
Ma 226
lap 226
tum 226
▁Board 226
▁Davis 226
▁Hunt 226
▁Welsh 226
▁Wol 226
▁accident 226
▁alcohol 226
▁fear 226
▁heir 226
▁hole 226
▁introduction 226
▁personality 226
▁reduce 226
▁resemble 226
▁strengthen 226
▁trace 226
▁universal 226
Ro 225
una 225
uz 225
▁Cole 225
▁Dog 225
▁Flanders 225
▁Jay 225
▁Raven 225
▁Rosa 225
▁Wo 225
▁adventure 225
▁airline 225
▁background 225
▁chairman 225
▁mixture 225
▁package 225
▁stores 225
▁sweet 225
▁transition 225
cade 224
related 224
zh 224
▁44 224
▁Atlanta 224
▁Convention 224
▁Express 224
▁Hospital 224
▁Ob 224
▁Sciences 224
▁Tam 224
▁Tennessee 224
▁Wy 224
▁hunt 224
▁promote 224
▁repeated 224
▁representation 224
▁signature 224
▁stimul 224
▁Capital 223
▁Cooper 223
▁Number 223
▁Tamil 223
▁Temp 223
▁Wagner 223
▁arrangement 223
▁civilian 223
▁destroy 223
▁migrat 223
▁virtual 223
▁worn 223
aver 222
night 222
wide 222
▁Catherine 222
▁Economic 222
▁Foreign 222
▁Off 222
▁Sky 222
▁Ukraine 222
▁blind 222
▁discuss 222
▁notice 222
▁plans 222
▁poll 222
▁protocol 222
▁sharp 222
▁volcano 222
58 221
ace 221
class 221
ori 221
pla 221
rance 221
verse 221
wald 221
▁Chamber 221
▁Marine 221
▁colour 221
▁equi 221
▁erupt 221
▁infection 221
▁protest 221
▁risk 221
oso 220
▁1000 220
▁Math 220
▁Norman 220
▁Tag 220
▁Whit 220
▁dinosaur 220
▁identity 220
▁illustrat 220
▁measured 220
▁passage 220
▁shop 220
▁slave 220
▁someone 220
▁whi 220
53 219
56 219
eastern 219
far 219
▁Andrea 219
▁Kent 219
▁Susan 219
▁Total 219
▁Universal 219
▁irregular 219
▁loan 219
▁predator 219
▁stress 219
▁task 219
ashi 218
bilities 218
ela 218
lish 218
stead 218
▁Defense 218
▁Globe 218
▁Moore 218
▁correspond 218
▁denote 218
▁executed 218
▁finish 218
▁gun 218
▁increasing 218
▁practical 218
▁regularly 218
▁tie 218
tti 217
▁Dead 217
▁Guide 217
▁Nicholas 217
▁Soul 217
▁actions 217
▁clothing 217
▁commemorat 217
▁entertainment 217
▁quantum 217
▁schedul 217
▁shut 217
bell 216
diction 216
face 216
gni 216
rush 216
ucci 216
uda 216
▁Chan 216
▁Drama 216
▁Emil 216
▁Horn 216
▁Sau 216
▁cartoon 216
▁ceremony 216
▁fly 216
▁huge 216
▁icon 216
▁journey 216
▁survive 216
▁trip 216
itis 215
mid 215
quir 215
▁Arena 215
▁Bobby 215
▁Journal 215
▁Play 215
▁Rick 215
▁Tin 215
▁Wing 215
▁cave 215
▁childhood 215
▁components 215
▁convention 215
▁dense 215
▁distinctive 215
▁imagin 215
▁photograph 215
▁rugby 215
▁sample 215
▁scheme 215
itor 214
osaurus 214
piece 214
tine 214
▁1889 214
▁Electric 214
▁Manhattan 214
▁Senator 214
▁Snow 214
▁Syria 214
▁adopt 214
▁argu 214
▁collaborat 214
▁comment 214
▁faith 214
▁measurement 214
▁muscle 214
▁plural 214
▁resign 214
▁views 214
coming 213
pass 213
▁Fab 213
▁bush 213
▁conclud 213
▁coordinat 213
▁dress 213
▁drop 213
▁expedition 213
▁fill 213
▁horizontal 213
▁imperial 213
▁predominant 213
▁queen 213
▁remember 213
▁sustain 213
41 212
AS 212
length 212
▁Design 212
▁Kevin 212
▁Mega 212
▁Sara 212
▁candidate 212
▁distinction 212
▁download 212
▁exclud 212
▁graduate 212
▁hyper 212
▁injury 212
▁presidential 212
▁restrict 212
▁safety 212
▁spa 212
General 211
boy 211
cover 211
▁1857 211
▁1898 211
▁Brun 211
▁Douglas 211
▁Houston 211
▁Once 211
▁Orange 211
▁Ron 211
▁carry 211
▁conquer 211
▁mechanic 211
▁paid 211
▁root 211
▁substantial 211
borough 210
nate 210
style 210
ural 210
▁Bert 210
▁Giovanni 210
▁Plant 210
▁Sai 210
▁Week 210
▁advanced 210
▁assist 210
▁bell 210
▁cheese 210
▁desire 210
▁elevation 210
▁environmental 210
▁fold 210
▁offices 210
▁scoring 210
▁tip 210
▁traveled 210
bir 209
esis 209
lla 209
rov 209
▁Beck 209
▁Idaho 209
▁Non 209
▁Rus 209
▁arrival 209
▁arrive 209
▁cable 209
▁chapter 209
▁combat 209
▁details 209
▁efforts 209
▁falls 209
▁net 209
▁orange 209
▁physician 209
▁spiritual 209
▁tools 209
▁vast 209
DA 208
OR 208
dding 208
roy 208
stand 208
▁Arctic 208
▁Gau 208
▁Miami 208
▁Shakespeare 208
▁adjacent 208
▁amateur 208
▁constitution 208
▁controversial 208
▁showed 208
▁sort 208
▁thousand 208
▁threaten 208
▁vocal 208
FL 207
after 207
azi 207
evolutionary 207
flu 207
ë 207
▁1909 207
▁Affairs 207
▁Astro 207
▁Championships 207
▁Epi 207
▁Franz 207
▁Janeiro 207
▁Morris 207
▁Spirit 207
▁Thailand 207
▁artistic 207
▁cards 207
▁chemistry 207
▁elder 207
▁forests 207
▁proportion 207
▁rescue 207
▁skate 207
▁whale 207
CI 206
rite 206
rose 206
vir 206
▁Edmund 206
▁Kath 206
▁Pier 206
▁assistant 206
▁circulation 206
▁felt 206
▁identical 206
▁intensity 206
▁officers 206
▁plea 206
▁say 206
▁seal 206
▁shoot 206
▁sixteen 206
▁supporting 206
comb 205
▁/ 205
▁1870 205
▁Bus 205
▁Legend 205
▁Malaysia 205
▁Program 205
▁Russell 205
▁algorithm 205
▁broken 205
▁duo 205
▁encourage 205
▁hardware 205
▁learning 205
▁prove 205
▁vertebra 205
▁zero 205
bridge 204
▁1880 204
▁250 204
▁AC 204
▁Again 204
▁Locat 204
▁Pad 204
▁Pip 204
▁Plain 204
▁Rhode 204
▁apply 204
▁attraction 204
▁audio 204
▁dimension 204
▁hir 204
▁neck 204
▁passes 204
▁patron 204
▁push 204
▁reviews 204
▁revolution 204
flow 203
▁Agency 203
▁Barn 203
▁Comm 203
▁Drive 203
▁Near 203
▁Queensland 203
▁Romanian 203
▁Row 203
▁agricultural 203
▁conventional 203
▁effort 203
▁predecessor 203
▁snake 203
craft 202
hausen 202
range 202
▁Aberdeen 202
▁Album 202
▁Dragon 202
▁Georg 202
▁Gö 202
▁Had 202
▁Hai 202
▁Henri 202
▁José 202
▁Luis 202
▁NBC 202
▁Nan 202
▁Only 202
▁athlete 202
▁documents 202
▁fixed 202
▁greatly 202
▁males 202
▁modified 202
▁pain 202
▁residence 202
▁retail 202
▁Amb 201
▁Democrat 201
▁Ernest 201
▁Glen 201
▁McG 201
▁Monroe 201
▁Ober 201
▁Official 201
▁Our 201
▁Salt 201
▁Serbia 201
▁creator 201
▁disaster 201
▁expos 201
▁frequency 201
▁lawyer 201
▁linguistic 201
▁sight 201
▁useful 201
leg 200
▁46 200
▁Alliance 200
▁Austin 200
▁Brothers 200
▁Cardinal 200
▁Den 200
▁Horse 200
▁Marco 200
▁Place 200
▁Read 200
▁Report 200
▁Urban 200
▁altitude 200
▁consecutive 200
▁destination 200
▁diesel 200
▁educational 200
▁handle 200
▁hang 200
▁scholars 200
▁sit 200
▁ultimately 200
63 199
body 199
rav 199
zzo 199
▁Amsterdam 199
▁Fal 199
▁Gan 199
▁Gill 199
▁Than 199
▁Traditional 199
▁Vin 199
▁check 199
▁denomination 199
▁execution 199
▁factors 199
▁gate 199
▁inventor 199
▁mind 199
▁passengers 199
▁scientists 199
▁standards 199
RT 198
ova 198
stream 198
uit 198
▁Additional 198
▁Isabel 198
▁Ludwig 198
▁Pun 198
▁answer 198
▁citizens 198
▁depth 198
▁essay 198
▁estate 198
▁finger 198
▁grave 198
▁heard 198
▁lap 198
▁let 198
▁recognize 198
▁starts 198
<WORDRANKRATIO_1.65> 197
gno 197
losing 197
text 197
▁1899 197
▁47 197
▁Beat 197
▁Fat 197
▁Iranian 197
▁Syn 197
▁Tech 197
▁coal 197
▁demo 197
▁divorc 197
▁educated 197
▁geometry 197
▁opponent 197
▁premiere 197
▁rap 197
▁receiving 197
ceased 196
▁Celtic 196
▁Chang 196
▁Emma 196
▁Hamburg 196
▁Now 196
▁Oliver 196
▁Otto 196
▁apart 196
▁arrested 196
▁aspects 196
▁deposit 196
▁integr 196
▁plus 196
▁proclaim 196
▁venue 196
IN 195
anna 195
determin 195
ducted 195
dynamic 195
▁1860 195
▁Range 195
▁Roosevelt 195
▁Scout 195
▁Southeast 195
▁feud 195
▁monk 195
▁pull 195
▁rear 195
▁stable 195
▁teeth 195
list 194
orient 194
▁1892 194
▁Chart 194
▁Clinton 194
▁Jet 194
▁Margaret 194
▁Nine 194
▁choose 194
▁doctor 194
▁gather 194
▁mining 194
▁mobile 194
▁peaked 194
▁predict 194
▁says 194
▁scientist 194
▁select 194
MA 193
had 193
person 193
yard 193
▁1,000 193
▁Hat 193
▁Native 193
▁Natural 193
▁Race 193
▁advance 193
▁commander 193
▁fishing 193
▁magnetic 193
▁participated 193
▁soundtrack 193
▁telephone 193
▁trading 193
▁workers 193
<DEPENDENCYTREEDEPTHRATIO_1.85> 192
distribut 192
▁1861 192
▁1896 192
▁Bonn 192
▁Corps 192
▁Delta 192
▁Louisiana 192
▁Morgan 192
▁charged 192
▁discussion 192
▁extent 192
▁ninth 192
▁rotation 192
▁surrender 192
▁temper 192
▁trail 192
<DEPENDENCYTREEDEPTHRATIO_1.55> 191
ER 191
^ 191
ennial 191
lang 191
tempo 191
▁Carter 191
▁Constant 191
▁Google 191
▁Leg 191
▁Magazine 191
▁Mother 191
▁Operation 191
▁Pot 191
▁Publish 191
▁Wat 191
▁camera 191
▁celebration 191
▁chair 191
▁initiat 191
▁moral 191
▁progress 191
▁save 191
▁scholar 191
▁stick 191
▁subjects 191
EA 190
arn 190
called 190
yu 190
▁Athens 190
▁Depression 190
▁Grey 190
▁Gustav 190
▁Jonathan 190
▁Minor 190
▁Route 190
▁Wonder 190
▁epic 190
▁gray 190
▁proved 190
▁sections 190
▁warning 190
54 189
ground 189
lim 189
rr 189
▁1893 189
▁95 189
▁Child 189
▁Code 189
▁Colombia 189
▁Mercury 189
▁Mrs 189
▁Ruth 189
▁Such 189
▁Youth 189
▁define 189
▁diet 189
▁intense 189
▁lifetime 189
▁powder 189
▁reputation 189
▁reside 189
HL 188
band 188
▁1887 188
▁Barry 188
▁Cleveland 188
▁Forbes 188
▁Gordon 188
▁Health 188
▁Maryland 188
▁Nigeria 188
▁agree 188
▁assumed 188
▁drawn 188
▁females 188
▁fourteen 188
▁interaction 188
▁mechanism 188
▁mine 188
▁prepared 188
▁progressive 188
▁soap 188
▁volcanic 188
Saxon 187
away 187
empt 187
game 187
hawk 187
phosph 187
▁Anglican 187
▁Baltimore 187
▁Blood 187
▁Devon 187
▁Scar 187
▁Story 187
▁Yoshi 187
▁companion 187
▁criminal 187
▁herself 187
▁lot 187
▁mat 187
▁publishing 187
▁pump 187
▁survived 187
▁thirty 187
NA 186
cz 186
font 186
▁10,000 186
▁Along 186
▁Claudi 186
▁Gothic 186
▁Gray 186
▁Stan 186
▁Sym 186
▁automatic 186
▁changing 186
▁colonies 186
▁exhibit 186
▁favorite 186
▁interpret 186
▁interval 186
▁lowest 186
▁manga 186
▁modul 186
▁react 186
▁soul 186
▁survey 186
SE 185
eli 185
▁2.5 185
▁Div 185
▁Nova 185
▁Tha 185
▁cup 185
▁dioxide 185
▁diverse 185
▁divide 185
▁dramatic 185
▁electricity 185
▁export 185
▁incident 185
▁interior 185
▁load 185
▁patent 185
▁ranking 185
▁seats 185
▁serial 185
▁speaking 185
▁supposed 185
▁tale 185
▁variable 185
LC 184
mour 184
rock 184
vit 184
▁Artist 184
▁Nation 184
▁Ronald 184
▁abandoned 184
▁adding 184
▁attend 184
▁cri 184
▁decide 184
▁documentary 184
▁factor 184
▁interpretation 184
▁jurisdiction 184
▁revis 184
▁threat 184
chrom 183
flex 183
mount 183
▁1830 183
▁1867 183
▁Care 183
▁Connecticut 183
▁Edge 183
▁Gilbert 183
▁Ltd 183
▁Rev 183
▁Thompson 183
▁categories 183
▁equation 183
▁fifteen 183
▁gang 183
▁household 183
▁junior 183
▁mainstream 183
▁showing 183
plan 182
▁1879 182
▁52 182
▁Mann 182
▁Nelson 182
▁Organ 182
▁Yellow 182
▁conservative 182
▁copper 182
▁hundreds 182
▁instrumental 182
▁laid 182
▁locations 182
▁mile 182
▁rainfall 182
▁subspeci 182
52 181
DS 181
etta 181
▁Guy 181
▁Holland 181
▁Jason 181
▁Madison 181
▁Maha 181
▁Sid 181
▁Wel 181
▁doctrine 181
▁finding 181
▁officials 181
▁pit 181
▁simultaneous 181
▁slowly 181
▁verse 181
▁wins 181
psych 180
qual 180
▁Airlines 180
▁DC 180
▁Dakota 180
▁Mul 180
▁Rico 180
▁Sacr 180
▁Sony 180
▁destruction 180
▁hotel 180
▁specimen 180
▁vector 180
course 179
regulat 179
vari 179
▁Edition 179
▁Jerry 179
▁Mile 179
▁Nicola 179
▁Releas 179
▁Single 179
▁buy 179
▁corresponding 179
▁hat 179
▁neuro 179
▁portray 179
▁successfully 179
bourne 178
rell 178
smith 178
tang 178
uzz 178
▁120 178
▁Estonia 178
▁Example 178
▁Grove 178
▁Ice 178
▁Imp 178
▁Jacques 178
▁Julie 178
▁achieve 178
▁banned 178
▁currency 178
▁drain 178
▁fleet 178
▁fu 178
▁molecular 178
▁poison 178
▁verb 178
bie 177
holder 177
sexual 177
term 177
word 177
× 177
▁1881 177
▁Administration 177
▁Amazon 177
▁Arnold 177
▁Costa 177
▁Crusade 177
▁Frankfurt 177
▁Victor 177
▁aged 177
▁alternate 177
▁artificial 177
▁calls 177
▁charter 177
▁compilation 177
▁cow 177
▁diploma 177
▁installed 177
▁liberal 177
▁minority 177
▁preferr 177
▁subsidiary 177
▁uncle 177
gro 176
▁Baker 176
▁Berkeley 176
▁Bryan 176
▁Circle 176
▁Liberal 176
▁Penn 176
▁Stewart 176
▁Tel 176
▁Thunder 176
▁Upon 176
▁bread 176
▁elect 176
▁exclusive 176
▁infect 176
▁martial 176
▁phenomenon 176
▁programme 176
▁pupil 176
▁somewhat 176
▁turns 176
▁unable 176
▁worth 176
opter 175
pproved 175
▁53 175
▁Brooklyn 175
▁Campbell 175
▁Herbert 175
▁Just 175
▁Northwest 175
▁Psych 175
▁Statistical 175
▁achievement 175
▁creature 175
▁frame 175
▁functional 175
▁pipe 175
▁remnant 175
BS 174
aged 174
kka 174
ía 174
▁66 174
▁Cent 174
▁Dallas 174
▁Donald 174
▁Leader 174
▁Medal 174
▁Sex 174
▁benefit 174
▁elde 174
▁exile 174
▁increasingly 174
▁necessari 174
▁random 174
eh 173
▁1894 173
▁Eagle 173
▁Vel 173
▁afterward 173
▁basin 173
▁committee 173
▁conquest 173
▁frequent 173
▁horror 173
▁lock 173
▁march 173
▁neighborhood 173
▁stopp 173
▁tract 173
jar 172
prefecture 172
rift 172
~ 172
▁Bang 172
▁Franc 172
▁Jamaica 172
▁Joan 172
▁Leeds 172
▁Reserve 172
▁absence 172
▁contributed 172
▁diagnos 172
▁girls 172
▁gross 172
▁immigrant 172
▁journal 172
▁overseas 172
▁safe 172
▁societies 172
▁specifi 172
▁strongly 172
▁tenth 172
▁theorem 172
▁understanding 172
power 171
▁1897 171
▁Lil 171
▁Marqu 171
▁Mut 171
▁annex 171
▁bull 171
▁egg 171
▁exercise 171
▁extract 171
▁investigat 171
▁mount 171
▁playwright 171
▁portrait 171
▁sculpture 171
cott 170
dimensional 170
dissolved 170
▁49 170
▁72 170
▁Athletic 170
▁Avenue 170
▁Richmond 170
▁Stuart 170
▁Tasmania 170
▁Thursday 170
▁concerned 170
▁domain 170
▁feather 170
▁hub 170
▁sitcom 170
▁violence 170
▁vision 170
ID 169
SC 169
hm 169
hroughout 169
itially 169
▁Buddhist 169
▁Gam 169
▁Hope 169
▁Rem 169
▁Serbian 169
▁Tuesday 169
▁Utah 169
▁finishing 169
▁ideal 169
▁loop 169
▁none 169
▁prais 169
▁precede 169
▁protagonist 169
▁replacement 169
▁terrestrial 169
▁treated 169
ì 168
▁1.5 168
▁Animat 168
▁Israeli 168
▁Labour 168
▁McL 168
▁Pie 168
▁accelerat 168
▁faster 168
▁imprison 168
▁indigenous 168
▁nitr 168
▁poems 168
▁ratio 168
IT 167
NC 167
SS 167
TI 167
scale 167
▁Abu 167
▁Esc 167
▁Hotel 167
▁Jimmy 167
▁Kil 167
▁Newfoundland 167
▁Season 167
▁Valencia 167
▁abolished 167
▁amongst 167
▁appropriate 167
▁cream 167
▁evening 167
▁margin 167
▁optical 167
▁performer 167
▁radical 167
▁retirement 167
▁strict 167
AC 166
extant 166
▁1888 166
▁Ernst 166
▁Harvard 166
▁Oscar 166
▁Soccer 166
▁Trade 166
▁Ukrainian 166
▁boot 166
▁chronic 166
▁decline 166
▁developer 166
▁exhibition 166
▁harvest 166
▁neighbour 166
▁operator 166
▁resist 166
▁update 166
etti 165
four 165
load 165
world 165
▁1800 165
▁1876 165
▁ABC 165
▁Add 165
▁Authority 165
▁Building 165
▁Energy 165
▁FA 165
▁Fantasy 165
▁Harris 165
▁Prefecture 165
▁Ryan 165
▁Software 165
▁Stand 165
▁Venice 165
▁Woman 165
▁Yugoslavia 165
▁ahead 165
▁begun 165
▁contribut 165
▁crossing 165
▁driving 165
▁meteor 165
▁needs 165
▁possession 165
▁tape 165
▁tornado 165
amba 164
▁Animal 164
▁Clay 164
▁Comics 164
▁Forces 164
▁Julius 164
▁Manuel 164
▁Mean 164
▁Murray 164
▁bought 164
▁crop 164
▁cultivat 164
▁evacuat 164
▁grade 164
▁headed 164
▁interface 164
▁mutual 164
▁portrayed 164
▁registered 164
▁render 164
▁roof 164
▁struck 164
▁sung 164
▁wider 164
▁56 163
▁Cemetery 163
▁Dublin 163
▁Kirk 163
▁Latvia 163
▁Planet 163
▁Representatives 163
▁Review 163
▁Sultan 163
▁agriculture 163
▁baby 163
▁birthday 163
▁calling 163
▁charges 163
▁describ 163
▁dozen 163
▁exceed 163
▁logo 163
▁opinion 163
▁preparation 163
▁remove 163
▁secure 163
▁veteran 163
▁wait 163
▁withdraw 163
league 162
raz 162
scribed 162
understood 162
▁1878 162
▁1885 162
▁Culture 162
▁Cyril 162
▁Dean 162
▁Fel 162
▁Hampshire 162
▁Nevada 162
▁Swan 162
▁Travel 162
▁anchor 162
▁athletic 162
▁carrying 162
▁identify 162
▁mere 162
▁merger 162
▁quick 162
▁sheet 162
▁trained 162
IP 161
dependent 161
iah 161
mill 161
▁1850 161
▁Command 161
▁Emirate 161
▁Merc 161
▁Slovakia 161
▁Soon 161
▁Suffolk 161
▁Warren 161
▁Wayne 161
▁choir 161
▁consistent 161
▁critic 161
▁fail 161
▁gift 161
▁headquarter 161
▁policies 161
▁precise 161
▁prominence 161
▁romantic 161
▁spend 161
▁thermal 161
▁ticket 161
▁vegetable 161
▁vice 161
▁whil 161
DC 160
nick 160
Ö 160
▁Batman 160
▁CBS 160
▁Leipzig 160
▁Macedonia 160
▁Regional 160
▁Robin 160
▁Sign 160
▁Thames 160
▁absolute 160
▁crowd 160
▁fastest 160
▁generated 160
▁latest 160
▁provincial 160
▁publicly 160
▁supplie 160
▁unofficial 160
▁weigh 160
duced 159
iko 159
link 159
▁1848 159
▁Audi 159
▁Buffalo 159
▁Deep 159
▁Grace 159
▁Oregon 159
▁Stockholm 159
▁Trinity 159
▁Victorian 159
▁coalition 159
▁fil 159
▁improve 159
▁quantity 159
▁sought 159
▁sponsor 159
▁symptom 159
profit 158
▁1886 158
▁54 158
▁81 158
▁Apollo 158
▁Basketball 158
▁Bueno 158
▁Croatian 158
▁Kaz 158
▁alleged 158
▁clay 158
▁entrance 158
▁evil 158
▁fund 158
▁mention 158
▁merchant 158
▁screenwriter 158
▁synonym 158
IC 157
fusion 157
ifying 157
train 157
▁Heaven 157
▁Jar 157
▁Left 157
▁Lieutenant 157
▁Luke 157
▁Movie 157
▁automobile 157
▁conclusion 157
▁decay 157
▁intention 157
▁lift 157
▁participate 157
▁sodium 157
▁spacecraft 157
▁teach 157
▁toxic 157
▁tunnel 157
▁visitors 157
fire 156
space 156
▁1883 156
▁Archbishop 156
▁Bond 156
▁Digital 156
▁Lane 156
▁Let 156
▁NASA 156
▁Step 156
▁Venezuela 156
▁Village 156
▁appeal 156
▁beautiful 156
▁controversy 156
▁exactly 156
▁legendar 156
▁lose 156
▁mental 156
▁offensive 156
▁partially 156
▁sector 156
▁skill 156
<WORDRANKRATIO_1.7> 155
dell 155
▁1862 155
▁Marc 155
▁Population 155
▁Principal 155
▁Saudi 155
▁Steel 155
▁UNESCO 155
▁constitutional 155
▁familiar 155
▁fin 155
▁happen 155
▁panel 155
▁percussion 155
▁phil 155
kha 154
some 154
▁Beijing 154
▁Eve 154
▁Gregory 154
▁Secret 154
▁Terry 154
▁Then 154
▁Trust 154
▁acoustic 154
▁caught 154
▁chord 154
▁dangerous 154
▁delay 154
▁households 154
▁interchange 154
▁plum 154
▁raise 154
DE 153
mur 153
stock 153
▁85 153
▁Barbara 153
▁Bohemia 153
▁Commander 153
▁Dec 153
▁Deutsche 153
▁Fitz 153
▁Gui 153
▁Johnny 153
▁Maxim 153
▁Mongolia 153
▁Naples 153
▁Orleans 153
▁Rights 153
▁argument 153
▁armies 153
▁boys 153
▁businessman 153
▁chapel 153
▁combine 153
▁doing 153
▁dragon 153
▁hunting 153
▁illness 153
▁integrated 153
▁isolated 153
▁legislature 153
▁rebel 153
▁rode 153
▁statue 153
▁wealth 153
AN 152
Star 152
lab 152
national 152
rik 152
shaw 152
shore 152
went 152
én 152
▁1874 152
▁74 152
▁Cameron 152
▁Carr 152
▁Dance 152
▁Heinrich 152
▁Military 152
▁Nat 152
▁Nikola 152
▁Twin 152
▁bronze 152
▁compact 152
▁humor 152
▁landscape 152
▁leaf 152
▁smooth 152
▁sword 152
▁synthesis 152
▁taste 152
▁tongue 152
▁votes 152
▁widow 152
51 151
cellular 151
fil 151
▁Buddhism 151
▁Columbus 151
▁Food 151
▁Marvel 151
▁Mongol 151
▁Professional 151
▁Tyr 151
▁Vincent 151
▁administrator 151
▁alliance 151
▁archive 151
▁beauty 151
▁chloride 151
▁consumption 151
▁contestant 151
▁declin 151
▁dictat 151
▁emergency 151
▁enemy 151
▁ensure 151
▁filled 151
▁integer 151
▁membership 151
▁nervous 151
▁perceiv 151
▁renew 151
▁speculat 151
▁terminal 151
▁transmission 151
▁transportation 151
jur 150
▁Adolf 150
▁Croatia 150
▁Data 150
▁Devil 150
▁Shadow 150
▁Sometime 150
▁Studies 150
▁Vegas 150
▁breast 150
▁corporation 150
▁entity 150
▁exact 150
▁interact 150
▁junction 150
▁offering 150
▁pap 150
▁rebuil 150
▁respond 150
▁rope 150
▁statistical 150
▁tank 150
▁transmitt 150
▁Brook 149
▁CE 149
▁Mozart 149
▁Sebastian 149
▁Start 149
▁Stein 149
▁Tiger 149
▁Transport 149
▁Viking 149
▁Within 149
▁abuse 149
▁ballet 149
▁cattle 149
▁chromosome 149
▁constituent 149
▁cricket 149
▁delivered 149
▁elevat 149
▁jet 149
▁shelter 149
▁shock 149
▁slope 149
▁trait 149
RO 148
ST 148
amine 148
atta 148
jun 148
▁Azerbaijan 148
▁Bulgaria 148
▁Gang 148
▁Kha 148
▁Lucas 148
▁Marcel 148
▁Petersburg 148
▁Sicily 148
▁Technology 148
▁culminat 148
▁database 148
▁disturb 148
▁larva 148
▁lung 148
▁platinum 148
▁relocat 148
▁solve 148
▁usual 148
<DEPENDENCYTREEDEPTHRATIO_0.05> 147
group 147
ör 147
▁1877 147
▁Canal 147
▁Emmy 147
▁Pearl 147
▁Universit 147
▁animation 147
▁balance 147
▁consume 147
▁factory 147
▁false 147
▁lyric 147
▁massacre 147
▁philosophical 147
▁relation 147
▁stamp 147
▁struggle 147
▁suitabl 147
▁trademark 147
AF 146
how 146
rog 146
▁1863 146
▁Actor 146
▁Charlie 146
▁Edgar 146
▁Faith 146
▁Lanka 146
▁Mall 146
▁Mou 146
▁Observatory 146
▁Raymond 146
▁Slovenia 146
▁blow 146
▁enroll 146
▁gravity 146
▁manufacturing 146
▁melt 146
▁moth 146
▁structural 146
▁sufficient 146
▁wooden 146
▁yield 146
LA 145
SU 145
aba 145
ambo 145
▁1856 145
▁1872 145
▁800 145
▁Bird 145
▁Bosnia 145
▁Information 145
▁Isaac 145
▁Maj 145
▁Much 145
▁Tang 145
▁acknowledg 145
▁dynamic 145
▁facility 145
▁naval 145
▁neutral 145
▁rapper 145
▁spoke 145
▁worst 145
The 144
iness 144
making 144
market 144
▁1840 144
▁73 144
▁Anderson 144
▁Bio 144
▁Bud 144
▁Calvin 144
▁Comedy 144
▁Computer 144
▁Fun 144
▁Lamb 144
▁Lombard 144
▁Luxembourg 144
▁Sussex 144
▁Take 144
▁Train 144
▁Turn 144
▁admitted 144
▁compil 144
▁displac 144
▁fighter 144
▁harbor 144
▁moderate 144
▁monastery 144
▁theatrical 144
▁undergo 144
hour 143
igan 143
owski 143
vre 143
▁62 143
▁68 143
▁Cabinet 143
▁Comb 143
▁Ethiopia 143
▁Magic 143
▁Small 143
▁Stre 143
▁Test 143
▁batt 143
▁coup 143
▁generate 143
▁indicat 143
▁invest 143
▁polar 143
▁proof 143
▁resembl 143
▁saint 143
▁skills 143
▁600 142
▁Box 142
▁Collins 142
▁Dai 142
▁Diamond 142
▁Guard 142
▁Maine 142
▁Norfolk 142
▁Pradesh 142
▁Through 142
▁Wright 142
▁dancing 142
▁disappear 142
▁enhanc 142
▁hope 142
▁justice 142
▁nothing 142
▁scatter 142
▁spawn 142
▁strain 142
▁Cave 141
▁Desert 141
▁Eight 141
▁Hudson 141
▁Laboratory 141
▁Ralph 141
▁Ton 141
▁discipline 141
▁expensive 141
▁expert 141
▁inaugurat 141
▁kg 141
▁manage 141
▁sharing 141
▁soldier 141
▁statistics 141
operative 140
tta 140
▁100,000 140
▁1866 140
▁Carol 140
▁Challenge 140
▁Dodge 140
▁Hugh 140
▁Independent 140
▁Lauren 140
▁Uruguay 140
▁advertising 140
▁affairs 140
▁apparent 140
▁cab 140
▁commenc 140
▁dream 140
▁earning 140
▁freshwater 140
▁grandson 140
▁highway 140
▁hind 140
▁hypothesis 140
▁illegal 140
▁signing 140
TS 139
force 139
mission 139
nell 139
▁1859 139
▁96 139
▁Champ 139
▁Gary 139
▁Nature 139
▁Santiago 139
▁anyone 139
▁arrest 139
▁chose 139
▁cluster 139
▁consumer 139
▁finds 139
▁flash 139
▁planning 139
▁posthumous 139
▁proposal 139
▁regulation 139
▁seiz 139
▁theoretical 139
ffin 138
jured 138
language 138
read 138
▁0.1 138
▁71 138
▁88 138
▁98 138
▁Chronicle 138
▁Confederation 138
▁Cruz 138
▁Grant 138
▁Gru 138
▁Similar 138
▁Universe 138
▁cinema 138
▁comparison 138
▁elephant 138
▁preference 138
▁qualified 138
▁recipient 138
▁rejected 138
cession 137
▁Adv 137
▁Large 137
▁Vladimir 137
▁cabinet 137
▁duties 137
▁emphasis 137
▁error 137
▁intelligence 137
▁kit 137
▁legislative 137
▁preceding 137
▁regime 137
▁rush 137
▁sale 137
▁suicide 137
▁traded 137
rim 136
▁1852 136
▁1884 136
▁Abraham 136
▁Break 136
▁Craig 136
▁Lebanon 136
▁Literature 136
▁Medical 136
▁NY 136
▁Wang 136
▁appointment 136
▁cuisine 136
▁efficient 136
▁fatal 136
▁gets 136
▁heritage 136
▁inspiration 136
▁minimal 136
▁rising 136
▁ruling 136
▁secretary 136
▁settl 136
▁sick 136
▁wealthy 136
SP 135
action 135
america 135
rage 135
▁1849 135
▁1854 135
▁59 135
▁CO 135
▁Guitar 135
▁Libya 135
▁Tampa 135
▁democratic 135
▁everything 135
▁hidden 135
▁kick 135
▁lectur 135
▁loyal 135
▁minimum 135
▁occupy 135
▁responsibilit 135
▁trust 135
▁upgrad 135
000 134
AL 134
AR 134
elected 134
engaged 134
foot 134
▁Alexandria 134
▁Andy 134
▁Hunter 134
▁Management 134
▁Oak 134
▁Officer 134
▁Pedro 134
▁Prague 134
▁Sierra 134
▁certifi 134
▁challeng 134
▁collision 134
▁consequence 134
▁deliver 134
▁dismiss 134
▁downtown 134
▁finance 134
▁fragment 134
▁getting 134
▁melodi 134
▁outbreak 134
▁pocket 134
▁prohibit 134
▁roads 134
▁surpass 134
▁weapon 134
▁window 134
AM 133
RE 133
WA 133
bank 133
ovsky 133
while 133
▁DJ 133
▁Further 133
▁Still 133
▁Studio 133
▁Thor 133
▁Tyler 133
▁enabl 133
▁enclos 133
▁experimental 133
▁housing 133
▁proceed 133
▁puppet 133
▁raid 133
▁resolution 133
▁sediment 133
▁storyline 133
▁testing 133
NI 132
SI 132
asso 132
augural 132
evich 132
izer 132
▁1871 132
▁Actress 132
▁Alternative 132
▁Business 132
▁Gospel 132
▁Movement 132
▁Neil 132
▁Pack 132
▁Peak 132
▁Weather 132
▁assembl 132
▁conversion 132
▁missing 132
▁naming 132
▁participant 132
▁primitive 132
▁questions 132
▁remote 132
▁shall 132
▁uncertain 132
▁violent 132
▁witness 132
chang 131
▁Chelsea 131
▁Circuit 131
▁Multi 131
▁Panama 131
▁Parker 131
▁Sheffield 131
▁Student 131
▁Sudan 131
▁chip 131
▁digit 131
▁instant 131
▁intellectual 131
▁reject 131
▁sensor 131
▁shark 131
▁slide 131
▁surname 131
▁terminus 131
▁tied 131
▁truck 131
DP 130
elia 130
esh 130
member 130
▁1864 130
▁Benedict 130
▁Brother 130
▁Campaign 130
▁Leicester 130
▁Liga 130
▁Marcus 130
▁Nik 130
▁Past 130
▁Rule 130
▁Windsor 130
▁abortion 130
▁argue 130
▁assassination 130
▁champions 130
▁clothes 130
▁excess 130
▁golden 130
▁licens 130
▁membrane 130
▁pink 130
▁presidency 130
▁revival 130
▁rubber 130
▁sang 130
▁secur 130
▁shrub 130
▁stayed 130
▁tune 130
▁unre 130
▁unsuccessful 130
▁warrior 130
▁1869 129
▁Daily 129
▁Fen 129
▁Malay 129
▁Mik 129
▁Sig 129
▁Technical 129
▁Wu 129
▁accomplish 129
▁bay 129
▁cited 129
▁collaboration 129
▁conservation 129
▁corn 129
▁exit 129
▁flying 129
▁grandfather 129
▁interrupt 129
▁investigation 129
▁knock 129
▁measures 129
▁nest 129
▁oxidation 129
▁parliamentary 129
▁prefer 129
▁publish 129
▁retriev 129
▁rice 129
▁rotat 129
▁servant 129
▁supporters 129
▁weekend 129
PA 128
PC 128
ledge 128
▁58 128
▁Blu 128
▁Control 128
▁Hammer 128
▁Highland 128
▁Low 128
▁Where 128
▁employees 128
▁execut 128
▁presentation 128
▁reward 128
▁shallow 128
▁siege 128
▁spider 128
▁steal 128
▁sulfur 128
▁thread 128
▁trophy 128
▁turning 128
▁wearing 128
figur 127
half 127
physiolog 127
pool 127
▁77 127
▁Corr 127
▁Electronic 127
▁Eye 127
▁Fleet 127
▁Keith 127
▁Nathan 127
▁Normandy 127
▁Penguin 127
▁Raj 127
▁assistance 127
▁breath 127
▁committed 127
▁devoted 127
▁ensemble 127
▁falling 127
▁immediate 127
▁manuscript 127
▁marry 127
▁profile 127
▁remarkabl 127
▁ride 127
▁significance 127
▁strategic 127
▁why 127
ET 126
cross 126
wind 126
▁Eddie 126
▁Executive 126
▁Freedom 126
▁Machine 126
▁Tai 126
▁Wednesday 126
▁advis 126
▁blade 126
▁bringing 126
▁conceiv 126
▁considerabl 126
▁fled 126
▁implementation 126
▁minute 126
▁presid 126
▁procedure 126
▁revolt 126
▁tension 126
▁theories 126
▁viewers 126
▁volunteer 126
0.0 125
▁99 125
▁Bristol 125
▁Farm 125
▁Hur 125
▁SR 125
▁Sanskrit 125
▁Scandinavia 125
▁Staff 125
▁Walk 125
▁accused 125
▁anything 125
▁archaeolog 125
▁assembly 125
▁budget 125
▁criteri 125
▁gone 125
▁investment 125
▁mistake 125
▁preach 125
▁systematic 125
▁till 125
▁tru 125
<WORDRANKRATIO_0.5> 124
eiro 124
▁1873 124
▁Allied 124
▁Arsenal 124
▁Bermuda 124
▁Chen 124
▁Fuji 124
▁Slovak 124
▁Warsaw 124
▁abstract 124
▁bore 124
▁competitor 124
▁constellation 124
▁fee 124
▁indicated 124
▁leather 124
▁mature 124
▁opportunity 124
▁owners 124
▁purchase 124
▁register 124
▁riot 124
▁secular 124
▁strategy 124
▁supervis 124
fir 123
mund 123
ogue 123
▁Bedford 123
▁Indonesian 123
▁Transit 123
▁accurate 123
▁anniversary 123
▁borrow 123
▁communicat 123
▁communist 123
▁craft 123
▁faced 123
▁glacier 123
▁grain 123
▁horses 123
▁index 123
▁neo 123
▁oppos 123
▁percentage 123
▁trigger 123
▁utiliz 123
,200 122
eater 122
▁1853 122
▁Fernando 122
▁Fish 122
▁Haz 122
▁Physics 122
▁Theodore 122
▁Together 122
▁Type 122
▁calculate 122
▁easy 122
▁fifty 122
▁hymn 122
▁implie 122
▁looking 122
▁psychology 122
▁remainder 122
▁settlers 122
▁travell 122
▁triangle 122
▁victims 122
hum 121
ña 121
▁1841 121
▁1858 121
▁2,000 121
▁Chemistry 121
▁Haut 121
▁Jerem 121
▁Mikhail 121
▁Often 121
▁Ottawa 121
▁Return 121
▁Side 121
▁bid 121
▁citizen 121
▁clan 121
▁convince 121
▁criticism 121
▁debt 121
▁eighteen 121
▁gall 121
▁impos 121
▁installation 121
▁invention 121
▁knight 121
▁mirror 121
▁pastor 121
▁resident 121
▁ritual 121
▁sacred 121
▁shield 121
▁suspect 121
GA 120
ility 120
releasing 120
south 120
Ê 120
▁69 120
▁Access 120
▁Chairman 120
▁Flight 120
▁Floyd 120
▁Manitoba 120
▁Newcastle 120
▁Political 120
▁Rugby 120
▁Shak 120
▁Somerset 120
▁apparently 120
▁attending 120
▁bottle 120
▁float 120
▁introduce 120
▁landmark 120
▁permission 120
▁pleasure 120
▁prompt 120
▁runner 120
▁separation 120
▁skull 120
▁spectrum 120
▁stood 120
▁suspended 120
hom 119
recogniz 119
▁Belarus 119
▁Brighton 119
▁Guatemala 119
▁Section 119
▁Surrey 119
▁Theater 119
▁advice 119
▁cemetery 119
▁commut 119
▁copyright 119
▁easier 119
▁insert 119
▁legitimate 119
▁revolutionar 119
▁rub 119
▁101 118
▁63 118
▁Basin 118
▁Chuck 118
▁Declaration 118
▁Direct 118
▁Engineering 118
▁FI 118
▁Harold 118
▁Typical 118
▁USSR 118
▁Watson 118
▁Worcester 118
▁devastat 118
▁explicit 118
▁hearing 118
▁honorar 118
▁hybrid 118
▁intermediate 118
▁layout 118
▁perspective 118
▁trie 118
uru 117
ush 117
▁110 117
▁Admiral 117
▁Cincinnati 117
▁Collection 117
▁Crystal 117
▁Ghost 117
▁Intelligence 117
▁Nixon 117
▁Stoke 117
▁Township 117
▁closer 117
▁departure 117
▁dual 117
▁dubbed 117
▁exploit 117
▁heaven 117
▁overthrow 117
▁spiral 117
▁tourism 117
▁valid 117
brand 116
hat 116
lift 116
nova 116
▁700 116
▁Bulgarian 116
▁Maurice 116
▁Scots 116
▁Wallace 116
▁archaeological 116
▁bath 116
▁complement 116
▁enthusias 116
▁funeral 116
▁galax 116
▁negotiat 116
▁ordinary 116
▁payment 116
▁prestigious 116
▁psycho 116
▁reviv 116
▁rocket 116
▁syndrome 116
▁triple 116
▁voting 116
▁voyage 116
▁wound 116
TE 115
buck 115
▁57 115
▁Ahmad 115
▁Alberta 115
▁Algeria 115
▁Grim 115
▁Judaism 115
▁Limited 115
▁Mission 115
▁Orlando 115
▁Round 115
▁Rush 115
▁brew 115
▁commentator 115
▁efficiency 115
▁elaborate 115
▁incorporate 115
▁memorial 115
▁narrat 115
▁nephew 115
▁organize 115
▁probability 115
▁purple 115
▁scar 115
▁stab 115
▁synthetic 115
▁telescope 115
▁twist 115
front 114
government 114
utter 114
▁76 114
▁Aaron 114
▁Aero 114
▁Crow 114
▁Edmonton 114
▁Justin 114
▁Kai 114
▁Kenya 114
▁Market 114
▁Memphis 114
▁Morocco 114
▁Voice 114
▁adjust 114
▁broadcasting 114
▁circumstance 114
▁comprehensive 114
▁configuration 114
▁constituency 114
▁honey 114
▁nitrogen 114
▁nurse 114
▁relief 114
▁resignation 114
▁tenure 114
park 113
season 113
walk 113
▁1868 113
▁Charter 113
▁Denis 113
▁Durham 113
▁Former 113
▁Honor 113
▁Kel 113
▁PA 113
▁Pink 113
▁Rang 113
▁Stanford 113
▁Stefan 113
▁abundant 113
▁circum 113
▁cloth 113
▁enable 113
▁enemies 113
▁gauge 113
▁homo 113
▁industries 113
▁institute 113
▁lover 113
▁mild 113
▁operational 113
▁patients 113
▁recommended 113
▁referendum 113
▁ruin 113
▁sociolog 113
▁superior 113
▁twentieth 113
borne 112
gil 112
▁78 112
▁Bomb 112
▁Cameroon 112
▁Evans 112
▁Felix 112
▁Ground 112
▁Lock 112
▁Mack 112
▁Mitchell 112
▁Nottingham 112
▁Roy 112
▁Tommy 112
▁Wesley 112
▁XVI 112
▁Yan 112
▁assert 112
▁diversity 112
▁gender 112
▁narrative 112
▁objective 112
▁ownership 112
▁possibility 112
▁rabbi 112
▁recreation 112
▁topics 112
▁trap 112
▁trend 112
▁understand 112
▁velocity 112
▁vessel 112
hir 111
incorporated 111
▁84 111
▁Cairo 111
▁NASCAR 111
▁Revolutionary 111
▁SC 111
▁Siberia 111
▁Spencer 111
▁Track 111
▁blend 111
▁captiv 111
▁carrier 111
▁celebrate 111
▁criticiz 111
▁improvement 111
▁monitor 111
▁personnel 111
▁prolific 111
▁publications 111
▁robot 111
▁shoe 111
▁shooting 111
▁swimming 111
▁synthesiz 111
▁theatre 111
▁truth 111
take 110
wen 110
Á 110
▁Agreement 110
▁Alpha 110
▁Beginning 110
▁Copenhagen 110
▁Featur 110
▁Female 110
▁Fund 110
▁Miguel 110
▁NATO 110
▁Previous 110
▁Salvador 110
▁Ward 110
▁Yankee 110
▁charity 110
▁corporate 110
▁golf 110
▁internet 110
▁listen 110
▁monster 110
▁outdoor 110
▁peer 110
▁squad 110
▁wrong 110
cliffe 109
clusion 109
clusive 109
ffer 109
▁1875 109
▁91 109
▁Beth 109
▁CEO 109
▁Capitol 109
▁Congo 109
▁Harvey 109
▁Helsinki 109
▁Kun 109
▁Lutheran 109
▁Malcolm 109
▁assault 109
▁associate 109
▁clip 109
▁concrete 109
▁disrupt 109
▁exposure 109
▁favorabl 109
▁oversee 109
▁recruit 109
▁retreat 109
▁revenue 109
▁stating 109
▁subfamily 109
▁substitute 109
HA 108
anga 108
compatible 108
written 108
▁Bachelor 108
▁Block 108
▁Boeing 108
▁Broadcasting 108
▁Construction 108
▁Kenneth 108
▁Mobile 108
▁Ridge 108
▁Seoul 108
▁Yang 108
▁algebra 108
▁blog 108
▁cash 108
▁chest 108
▁contend 108
▁deem 108
▁earn 108
▁fabric 108
▁hatch 108
▁hid 108
▁infrastructure 108
▁insurance 108
▁modification 108
▁remix 108
▁sponsored 108
▁thing 108
▁venture 108
▁voltage 108
aku 107
residing 107
ww 107
▁Brisbane 107
▁Cloud 107
▁Delaware 107
▁Fellow 107
▁Gloucester 107
▁Larry 107
▁Oslo 107
▁Owen 107
▁Silesia 107
▁Style 107
▁approval 107
▁bicycle 107
▁derivative 107
▁endanger 107
▁funds 107
▁injuries 107
▁photographer 107
▁polymer 107
▁preserve 107
▁prisoners 107
▁quarterback 107
▁smoke 107
▁temporarily 107
▁trumpet 107
rri 106
symmetric 106
▁1846 106
▁83 106
▁EU 106
▁Essex 106
▁Leopold 106
▁Plymouth 106
▁arrondissement 106
▁democracy 106
▁duty 106
▁entertain 106
▁explosion 106
▁incorporat 106
▁landing 106
▁mask 106
▁puzzle 106
▁syndicat 106
▁wounded 106
generat 105
izz 105
▁Adrian 105
▁Confederate 105
▁Cornell 105
▁Future 105
▁Helm 105
▁Hundred 105
▁Jesse 105
▁Thai 105
▁Ultimate 105
▁Warrior 105
▁abroad 105
▁affiliat 105
▁alien 105
▁authentic 105
▁counterpart 105
▁cutting 105
▁dorm 105
▁elementary 105
▁framework 105
▁involvement 105
▁liberat 105
▁odd 105
▁recall 105
▁regiment 105
▁scholarship 105
▁surprise 105
▁territorial 105
SR 104
color 104
▁1851 104
▁Broadway 104
▁Cornwall 104
▁Discovery 104
▁Eventual 104
▁Global 104
▁Lancashire 104
▁Manager 104
▁Nepal 104
▁Panther 104
▁Spider 104
▁Volume 104
▁Xi 104
▁chicken 104
▁coincid 104
▁complet 104
▁cotton 104
▁crater 104
▁donat 104
▁economist 104
▁engrav 104
▁facilitate 104
▁focuse 104
▁legislation 104
▁mall 104
▁marsh 104
▁measur 104
▁median 104
▁miss 104
▁profit 104
▁psychiatri 104
▁seventeen 104
▁trouble 104
establish 103
scape 103
solving 103
▁79 103
▁Danny 103
▁Golf 103
▁Lisa 103
▁Morning 103
▁Rice 103
▁Shore 103
▁audition 103
▁decrease 103
▁discontinu 103
▁emigrat 103
▁fault 103
▁happened 103
▁highlight 103
▁lord 103
▁manual 103
▁phenomena 103
▁pirate 103
▁profession 103
▁promis 103
▁quantities 103
▁reducing 103
▁respective 103
▁undergraduate 103
100 102
Connor 102
▁Albany 102
▁Crime 102
▁Idol 102
▁Maz 102
▁Municipality 102
▁Nancy 102
▁Somali 102
▁Support 102
▁advocate 102
▁bulk 102
▁competitive 102
▁crisis 102
▁everyone 102
▁evolv 102
▁guilty 102
▁hide 102
▁humid 102
▁import 102
▁laboratory 102
▁linear 102
▁partnership 102
▁persuad 102
▁pitcher 102
▁psychological 102
▁resolve 102
▁steep 102
▁terminat 102
▁valuable 102
HS 101
third 101
▁1847 101
▁61 101
▁Buddha 101
▁Cologne 101
▁Dennis 101
▁Environment 101
▁Hughes 101
▁Lloyd 101
▁Present 101
▁Recent 101
▁Todd 101
▁Turner 101
▁bag 101
▁crack 101
▁decoration 101
▁default 101
▁disband 101
▁excellent 101
▁fraction 101
▁habit 101
▁jersey 101
▁multipli 101
▁nineteenth 101
▁pursue 101
▁refuge 101
▁sculptor 101
▁supplement 101
▁tap 101
▁textile 101
▁victories 101
Italia 100
product 100
released 100
▁Abdul 100
▁Delhi 100
▁Look 100
▁Lyon 100
▁Rabbi 100
▁afternoon 100
▁agencies 100
▁bonus 100
▁calcium 100
▁curv 100
▁enormous 100
▁examin 100
▁explanation 100
▁gay 100
▁limestone 100
▁punishment 100
▁railroad 100
▁realiz 100
▁slavery 100
▁successive 100
▁tiny 100
▁width 100
DI 99
▁Baroque 99
▁Ecuador 99
▁Historic 99
▁Nashville 99
▁Next 99
▁Talk 99
▁Tanzania 99
▁Walker 99
▁accidental 99
▁cardinal 99
▁completion 99
▁costume 99
▁decisive 99
▁followers 99
▁globe 99
▁grandmother 99
▁hierarch 99
▁infant 99
▁manipulat 99
▁rebellion 99
▁shadow 99
▁stroke 99
▁warfar 99
<WORDRANKRATIO_1.75> 98
escence 98
▁Adelaide 98
▁Beverly 98
▁Blanc 98
▁Hold 98
▁Negro 98
▁Sparta 98
▁Twenty 98
▁accompany 98
▁attendance 98
▁carve 98
▁celebrity 98
▁decree 98
▁divine 98
▁dys 98
▁embryo 98
▁freight 98
▁friendly 98
▁hometown 98
▁impossible 98
▁ministry 98
▁reinforc 98
▁schedule 98
▁specialist 98
boat 97
refore 97
titled 97
▁Airways 97
▁Episode 97
▁Gallery 97
▁Industrial 97
▁Khal 97
▁Kosovo 97
▁NCAA 97
▁Naval 97
▁Sweet 97
▁abbey 97
▁apartment 97
▁candidates 97
▁danger 97
▁flee 97
▁knew 97
▁loud 97
▁placing 97
▁remake 97
▁restriction 97
▁suffering 97
▁teenager 97
▁tribal 97
▁windows 97
<DEPENDENCYTREEDEPTHRATIO_0.95> 96
election 96
llusion 96
▁AM 96
▁Beside 96
▁Commissioner 96
▁Czechoslovakia 96
▁Denver 96
▁Kuwait 96
▁Laura 96
▁Oblast 96
▁Perry 96
▁Services 96
▁armor 96
▁ascend 96
▁beating 96
▁burial 96
▁defence 96
▁doubt 96
▁filter 96
▁incorrect 96
▁peripher 96
▁permit 96
▁repeat 96
▁rifle 96
▁rot 96
▁skeleton 96
▁township 96
SL 95
borg 95
electric 95
militar 95
▁1855 95
▁67 95
▁Aboriginal 95
▁Bloom 95
▁Cecil 95
▁Cricket 95
▁Cultural 95
▁Dubai 95
▁Exchange 95
▁Fisher 95
▁Right 95
▁Stage 95
▁Transportation 95
▁Wheel 95
▁bowl 95
▁diagram 95
▁disagree 95
▁distant 95
▁exhaust 95
▁fired 95
▁gap 95
▁grammar 95
▁nerve 95
▁partial 95
▁promise 95
▁revers 95
lateral 94
span 94
▁Antwerp 94
▁Blake 94
▁Canterbury 94
▁Caroline 94
▁Chapter 94
▁Gerald 94
▁Ghana 94
▁Holocaust 94
▁Municipal 94
▁Scotia 94
▁Twelve 94
▁array 94
▁barrier 94
▁cargo 94
▁closing 94
▁crush 94
▁dispos 94
▁drew 94
▁explosive 94
▁metre 94
▁mob 94
▁patch 94
▁penalty 94
▁proximity 94
▁pseudonym 94
▁racial 94
▁repair 94
▁replica 94
▁residential 94
▁shopping 94
▁slot 94
ED 93
FA 93
shot 93
valu 93
▁Indianapolis 93
▁Model 93
▁Montenegro 93
▁Montgomery 93
▁Portland 93
▁Rachel 93
▁Source 93
▁Thorn 93
▁Thos 93
▁Trail 93
▁ancestry 93
▁architectural 93
▁biography 93
▁confront 93
▁consensu 93
▁consolidat 93
▁decreas 93
▁embedded 93
▁inscription 93
▁mortal 93
▁pursu 93
▁recurring 93
▁shaft 93
▁simulat 93
▁teachers 93
▁thriller 93
▁visiting 93
CO 92
IM 92
▁Catalan 92
▁Contest 92
▁Guild 92
▁Harbour 92
▁Institution 92
▁LP 92
▁Meta 92
▁Mine 92
▁Nebraska 92
▁Prison 92
▁Valentin 92
▁accordance 92
▁advisor 92
▁affiliate 92
▁cease 92
▁clergy 92
▁consequent 92
▁explore 92
▁flourish 92
▁helping 92
▁infinite 92
▁magnet 92
▁manifest 92
▁mysterious 92
▁nearest 92
▁obvious 92
▁pilgrim 92
▁relegat 92
▁thanks 92
▁transformation 92
▁turtle 92
LS 91
grove 91
ologic 91
vascular 91
▁Case 91
▁Chester 91
▁Constantinople 91
▁Corp 91
▁Eugene 91
▁Holl 91
▁Mix 91
▁Notable 91
▁Primary 91
▁assume 91
▁beetle 91
▁brick 91
▁contribute 91
▁delegate 91
▁drown 91
▁electoral 91
▁excavat 91
▁perception 91
▁pseudo 91
▁reduction 91
▁routine 91
▁shrine 91
▁spectator 91
▁taxes 91
▁wedding 91
▁wheat 91
ño 90
▁Calgary 90
▁Communication 90
▁Flower 90
▁Montana 90
▁accessible 90
▁ballad 90
▁chassis 90
▁condemn 90
▁confusion 90
▁contribution 90
▁discharg 90
▁don 90
▁poverty 90
▁remark 90
▁rent 90
▁researchers 90
▁summit 90
▁technologies 90
▁vegetation 90
▁villain 90
induc 89
lick 89
white 89
▁Attorney 89
▁Baldwin 89
▁Continental 89
▁Deputy 89
▁Finance 89
▁IBM 89
▁Liberty 89
▁Martha 89
▁Rah 89
▁Rapid 89
▁Reagan 89
▁boom 89
▁carriage 89
▁deputy 89
▁emphasiz 89
▁hook 89
▁mascot 89
▁prepare 89
▁vital 89
NO 88
fallen 88
versus 88
ça 88
▁Chand 88
▁Document 88
▁Hampton 88
▁Krist 88
▁Performance 88
▁Rama 88
▁Trent 88
▁creative 88
▁curve 88
▁cyto 88
▁diplomatic 88
▁emotional 88
▁examination 88
▁frog 88
▁permitted 88
▁resum 88
▁revolve 88
▁trick 88
▁uprising 88
▁vessels 88
,800 87
bound 87
founder 87
theless 87
▁Concord 87
▁Istanbul 87
▁Jazz 87
▁Rap 87
▁Springfield 87
▁Stafford 87
▁Tennis 87
▁Vatican 87
▁ensu 87
▁ibn 87
▁irre 87
▁knee 87
▁requirements 87
▁reverse 87
▁screenplay 87
▁smell 87
▁tribute 87
▁undertake 87
high 86
hurst 86
keeper 86
▁Budapest 86
▁Honour 86
▁Indies 86
▁McDonald 86
▁Railroad 86
▁Strong 86
▁YouTube 86
▁appoint 86
▁authoriz 86
▁conserv 86
▁deliberate 86
▁delivery 86
▁enzyme 86
▁girlfriend 86
▁grape 86
▁ignor 86
▁insist 86
▁judicial 86
▁realize 86
▁sacrifice 86
▁sketch 86
▁surf 86
▁sworn 86
▁tire 86
▁ultra 86
▁wake 86
CP 85
aj 85
speed 85
store 85
writer 85
▁86 85
▁Border 85
▁Branch 85
▁Brunswick 85
▁Brussels 85
▁Competition 85
▁Davies 85
▁Jennifer 85
▁Philosophy 85
▁Pioneer 85
▁Senior 85
▁Solomon 85
▁Survey 85
▁View 85
▁autumn 85
▁believ 85
▁bullet 85
▁demonstration 85
▁facing 85
▁faculty 85
▁grid 85
▁lessons 85
▁retir 85
▁separat 85
▁strange 85
▁surgery 85
▁valve 85
AP 84
claim 84
generation 84
produced 84
wolf 84
▁Bha 84
▁Blair 84
▁Dev 84
▁Guardian 84
▁Herzegovina 84
▁Jessica 84
▁Kingston 84
▁Portsmouth 84
▁Protect 84
▁Vermont 84
▁automat 84
▁chorus 84
▁circulat 84
▁coverage 84
▁duration 84
▁fortune 84
▁funding 84
▁pub 84
▁ready 84
▁sudden 84
▁tiger 84
tention 83
▁Circ 83
▁Double 83
▁Julia 83
▁Liberation 83
▁Mercedes 83
▁Nacional 83
▁Protection 83
▁Scientific 83
▁Southampton 83
▁Wizard 83
▁Wyoming 83
▁apprentice 83
▁finite 83
▁honour 83
▁introduc 83
▁jewel 83
▁motto 83
▁peaceful 83
▁regain 83
▁timber 83
▁transit 83
commerc 82
defunct 82
Õ 82
▁Andre 82
▁Grammar 82
▁Lancaster 82
▁Raja 82
▁Screen 82
▁Ship 82
▁Title 82
▁aesthetic 82
▁alive 82
▁convey 82
▁courses 82
▁dissolve 82
▁drag 82
▁faction 82
▁guns 82
▁lifestyle 82
▁missile 82
▁penetrat 82
▁pregnancy 82
▁riding 82
▁sponsorship 82
building 81
story 81
▁Author 81
▁Citizen 81
▁Coach 81
▁Hopkins 81
▁Secondary 81
▁achiev 81
▁converg 81
▁costs 81
▁empty 81
▁enforc 81
▁entrepreneur 81
▁expell 81
▁friendship 81
▁innovation 81
▁oblig 81
▁sitting 81
▁sure 81
▁trunk 81
MP 80
control 80
plane 80
zhou 80
▁2012 80
▁82 80
▁Albania 80
▁Associate 80
▁Commerce 80
▁Enterprise 80
▁Heights 80
▁Index 80
▁Judge 80
▁Kazakhstan 80
▁Nevertheless 80
▁RAF 80
▁Scholar 80
▁Siege 80
▁Sikh 80
▁Study 80
▁Winnipeg 80
▁Writer 80
▁abandon 80
▁advertisement 80
▁anticipat 80
▁consult 80
▁deck 80
▁ecosystem 80
▁indoor 80
▁kidney 80
▁pregnan 80
▁rational 80
▁repris 80
▁restoration 80
▁yards 80
lecommunications 79
wyn 79
▁Crawford 79
▁Generation 79
▁Grave 79
▁MA 79
▁Rafael 79
▁Sleep 79
▁Soldier 79
▁adhere 79
▁announcement 79
▁artifact 79
▁ceremonies 79
▁clause 79
▁crosses 79
▁emission 79
▁endemic 79
▁identifi 79
▁illustration 79
▁outstanding 79
▁patient 79
▁rooms 79
▁siblings 79
▁spark 79
▁stall 79
fest 78
wheel 78
▁Broad 78
▁Canyon 78
▁Ellis 78
▁Establish 78
▁Falcon 78
▁Glenn 78
▁Josh 78
▁Mathematics 78
▁Monument 78
▁Room 78
▁Tunisia 78
▁Usual 78
▁Workers 78
▁aftermath 78
▁anonymous 78
▁casualties 78
▁corps 78
▁depart 78
▁dialogue 78
▁eagle 78
▁emotion 78
▁expir 78
▁exploration 78
▁fitted 78
▁flame 78
▁hung 78
▁motorcycle 78
▁participation 78
▁refine 78
▁terrain 78
PI 77
inflammat 77
source 77
trans 77
▁Ballet 77
▁Belfast 77
▁Fighter 77
▁Klein 77
▁Manila 77
▁Pick 77
▁Wool 77
▁activat 77
▁aggressive 77
▁align 77
▁ambassador 77
▁attitude 77
▁customers 77
▁dying 77
▁negotiations 77
▁passion 77
▁prepar 77
▁senator 77
▁turbine 77
▁turbo 77
ngry 76
Ú 76
▁1,2 76
▁Armstrong 76
▁Cyprus 76
▁Furthermore 76
▁Oakland 76
▁Preston 76
▁Voivodeship 76
▁Without 76
▁Yale 76
▁certification 76
▁complicat 76
▁consul 76
▁elite 76
▁endors 76
▁hamlet 76
▁hectare 76
▁hyp 76
▁navy 76
▁resource 76
▁shipping 76
▁stereo 76
▁striking 76
▁tobacco 76
▁wool 76
MC 75
OM 75
founded 75
school 75
▁Bennett 75
▁Carroll 75
▁Cuban 75
▁Nicaragua 75
▁Popular 75
▁Subsequent 75
▁Treasury 75
▁Watch 75
▁cliff 75
▁drove 75
▁evaluat 75
▁kidnapp 75
▁licence 75
▁mandat 75
▁practitioner 75
▁reorganiz 75
▁reporter 75
▁requiring 75
▁stomach 75
▁tight 75
▁welcome 75
camp 74
credit 74
final 74
prote 74
î 74
▁Cliff 74
▁Colony 74
▁Doug 74
▁Foster 74
▁Galaxy 74
▁Harbor 74
▁Smok 74
▁Vietnamese 74
▁Winston 74
▁artwork 74
▁censor 74
▁commit 74
▁consonant 74
▁correlat 74
▁engage 74
▁nobility 74
▁pav 74
▁peasant 74
▁presum 74
▁radar 74
▁raising 74
▁rumor 74
▁swamp 74
▁terrorist 74
VA 73
raj 73
▁Agriculture 73
▁Carnegie 73
▁Ellen 73
▁Fine 73
▁Giants 73
▁Gibson 73
▁Hydro 73
▁accommodate 73
▁antenna 73
▁autobiography 73
▁boss 73
▁crucial 73
▁farmers 73
▁halt 73
▁hazard 73
▁iTunes 73
▁legac 73
▁organisation 73
▁orientation 73
▁outlet 73
▁privilege 73
▁qualifying 73
▁relevant 73
▁spending 73
▁stair 73
guard 72
▁Adult 72
▁Holmes 72
▁Industry 72
▁Methodist 72
▁Obama 72
▁Palestinian 72
▁careful 72
▁cyclist 72
▁denied 72
▁diamond 72
▁eventual 72
▁guarantee 72
▁helicopter 72
▁hitting 72
▁intelligent 72
▁marble 72
▁referee 72
▁suppress 72
▁suspension 72
▁swim 72
▁sympath 72
▁vein 72
kara 71
writing 71
▁93 71
▁Bombay 71
▁Consequent 71
▁Duncan 71
▁Elliot 71
▁Fraser 71
▁Leslie 71
▁blank 71
▁buses 71
▁ceramic 71
▁employment 71
▁ethic 71
▁fulfill 71
▁genome 71
▁ornament 71
▁submarine 71
▁victim 71
▁wage 71
connect 70
dvisory 70
franc 70
▁André 70
▁Clement 70
▁Dorothy 70
▁Eurovision 70
▁Folk 70
▁Minneapolis 70
▁Singh 70
▁battery 70
▁cavalry 70
▁enforcement 70
▁equipped 70
▁ghost 70
▁gymnast 70
▁hormone 70
▁labour 70
▁libraries 70
▁motivat 70
▁reception 70
▁suddenly 70
eligible 69
ð 69
▁Defence 69
▁Interior 69
▁Lambert 69
▁Nadu 69
▁Trinidad 69
▁aviation 69
▁calculation 69
▁citizenship 69
▁defect 69
▁dinner 69
▁idol 69
▁infantry 69
▁maternal 69
▁obscur 69
▁photography 69
▁receiver 69
▁stability 69
▁supplied 69
▁swing 69
▁syllable 69
▁tendenc 69
▁throat 69
chief 68
developed 68
plicat 68
▁Colonel 68
▁Expedition 68
▁Gibraltar 68
▁Private 68
▁Qatar 68
▁absent 68
▁arriv 68
▁cheap 68
▁commentary 68
▁conversation 68
▁generator 68
▁irrigat 68
▁psychologist 68
▁recognis 68
▁refugees 68
▁struggl 68
▁unexpected 68
2,2 67
▁0.5 67
▁Angola 67
▁Bolivia 67
▁Hindi 67
▁Lisbon 67
▁Parish 67
▁Wimbledon 67
▁conjunction 67
▁ferry 67
▁gear 67
▁identification 67
▁knife 67
▁losses 67
▁maintenance 67
▁participat 67
▁qualit 67
▁stolen 67
▁submitt 67
▁summon 67
▁thorough 67
▁wore 67
<DEPENDENCYTREEDEPTHRATIO_1.7> 66
bha 66
pala 66
Û 66
▁Bronze 66
▁Happy 66
▁Literar 66
▁Shanghai 66
▁bureau 66
▁furniture 66
▁handling 66
▁incomplete 66
▁lease 66
▁reunit 66
science 65
ø 65
▁Cambodia 65
▁Milwaukee 65
▁Myanmar 65
▁Normal 65
▁Rochester 65
▁amphibi 65
▁betray 65
▁burst 65
▁closure 65
▁decorated 65
▁encode 65
▁engagement 65
▁filmmaker 65
▁incumbent 65
▁notorious 65
▁plague 65
▁sack 65
▁| 65
wrote 64
ï 64
▁Filipino 64
▁Gandhi 64
▁Perform 64
▁Strike 64
▁Treasure 64
▁Wellington 64
▁accent 64
▁analyz 64
▁blam 64
▁complication 64
▁educator 64
▁firing 64
▁flank 64
▁grey 64
▁impressive 64
▁innovative 64
▁mentor 64
▁prospect 64
▁quiet 64
▁registration 64
▁sanction 64
<WORDRANKRATIO_1.8> 63
built 63
pati 63
screen 63
▁Conservation 63
▁Consul 63
▁FM 63
▁Rosen 63
▁acquisition 63
▁acres 63
▁analytic 63
▁biographi 63
▁catalog 63
▁comfortabl 63
▁entries 63
▁fortification 63
▁foster 63
▁gentle 63
▁inhibit 63
▁jail 63
▁kitchen 63
▁lieutenant 63
▁prosecut 63
▁reservoir 63
▁sensation 63
▁tumor 63
▁workshop 63
.00 62
Brien 62
▁Cardiff 62
▁Chrys 62
▁Fifth 62
▁Harper 62
▁Mull 62
▁Murphy 62
▁Pirates 62
▁Register 62
▁Syrian 62
▁Visit 62
▁dispatch 62
▁enterprise 62
▁evident 62
▁garner 62
▁harsh 62
▁initiative 62
▁kiss 62
▁overwhelm 62
▁summari 62
▁transaction 62
Neill 61
critic 61
girl 61
▁Annual 61
▁Built 61
▁Curtis 61
▁Karnataka 61
▁Paraguay 61
▁Speaker 61
▁Tir 61
▁amalgamat 61
▁confess 61
▁disguis 61
▁footage 61
▁luxury 61
▁militant 61
▁reluctant 61
▁trapped 61
<WORDRANKRATIO_2.0> 60
CT 60
famous 60
stroke 60
vulnerable 60
▁Election 60
▁Foot 60
▁McKi 60
▁Philippine 60
▁Quarter 60
▁Relations 60
▁Saskatchewan 60
▁Unfortunate 60
▁abolition 60
▁admit 60
▁bigger 60
▁commitment 60
▁conspiracy 60
▁demolished 60
▁difficulties 60
▁doctorate 60
▁feminist 60
▁intercept 60
▁intersection 60
▁intervention 60
▁navigation 60
▁outcome 60
▁propaganda 60
▁romance 60
▁sentiment 60
▁spear 60
▁survivors 60
▁therapy 60
▁treasure 60
▁voters 60
League 59
brook 59
present 59
▁Ahmed 59
▁Betty 59
▁Jesuit 59
▁Regiment 59
▁Samoa 59
▁Shield 59
▁Speedway 59
▁Store 59
▁Writing 59
▁addict 59
▁admission 59
▁affair 59
▁assets 59
▁assumption 59
▁dropping 59
▁editorial 59
▁employee 59
▁happy 59
▁imitat 59
▁matrix 59
▁rider 59
▁rookie 59
▁subsid 59
▁torture 59
quality 58
▁Custom 58
▁Edwin 58
▁Environmental 58
▁Flying 58
▁Patriot 58
▁choreograph 58
▁impression 58
▁ongoing 58
▁pursuit 58
▁reliev 58
▁scandal 58
▁smart 58
▁stake 58
▁technological 58
7.5 57
children 57
utstanding 57
▁Assistant 57
▁Beyond 57
▁Brigade 57
▁Investigat 57
▁Uttar 57
▁barrel 57
▁clash 57
▁compromis 57
▁extraordinar 57
▁jury 57
▁mutation 57
▁stack 57
▁vowel 57
contaminat 56
disciplinary 56
drome 56
hampton 56
är 56
ò 56
▁Berkshire 56
▁Bradford 56
▁Butler 56
▁Exhibition 56
▁Presbyterian 56
▁Superior 56
▁battalion 56
▁beaten 56
▁compli 56
▁embark 56
▁exam 56
▁forbidd 56
▁homosexual 56
▁leak 56
▁qualify 56
▁stuff 56
▁unclear 56
▁unemploy 56
author 55
▁Auckland 55
▁Editor 55
▁Holiday 55
▁Knox 55
▁Nichols 55
▁Patriarch 55
▁Training 55
▁awareness 55
▁cartridge 55
▁congregation 55
▁corruption 55
▁dispers 55
▁diving 55
▁expense 55
▁favour 55
▁garage 55
▁graduation 55
▁laser 55
▁noise 55
▁petition 55
▁pyramid 55
▁qualification 55
▁rectangular 55
▁robb 55
▁sweep 55
▁virtue 55
Donnell 54
flew 54
▁Architecture 54
▁Cinema 54
▁FBI 54
▁Griffin 54
▁Individual 54
▁Policy 54
▁advocat 54
▁aerial 54
▁ceiling 54
▁contradict 54
▁councillor 54
▁disabled 54
▁enlist 54
▁exterior 54
▁instructor 54
▁mansion 54
▁prototype 54
▁redesign 54
▁requirement 54
▁silent 54
▁steppe 54
▁unveil 54
▁watershed 54
ordinat 53
week 53
ów 53
▁Commercial 53
▁Grade 53
▁Herald 53
▁Shri 53
▁Telegraph 53
▁Vernon 53
▁Zimbabwe 53
▁affirm 53
▁consultant 53
▁diocese 53
▁ecclesiastic 53
▁enlarg 53
▁explode 53
▁hull 53
▁laugh 53
▁melody 53
▁nominee 53
▁overlook 53
▁punish 53
▁surgeon 53
<WORDRANKRATIO_1.85> 52
families 52
ý 52
▁Amateur 52
▁Males 52
▁McKe 52
▁Own 52
▁Patricia 52
▁Trump 52
▁accommodation 52
▁altar 52
▁applie 52
▁clinical 52
▁complain 52
▁fraud 52
▁utility 52
▁welfare 52
* 51
CS 51
gotten 51
▁Contemporary 51
▁Ferguson 51
▁Financial 51
▁Fleming 51
▁HMS 51
▁Palestine 51
▁Places 51
▁Syracuse 51
▁adequate 51
▁advertise 51
▁consent 51
▁cooperation 51
▁granite 51
▁joke 51
▁lawsuit 51
▁lesbian 51
▁memoir 51
▁recommend 51
▁recommendation 51
▁satisfi 51
▁teammate 51
▁yard 51
record 50
ukh 50
▁2013 50
▁Archaeolog 50
▁Different 50
▁Iraqi 50
▁Junction 50
▁Ladies 50
▁Mason 50
▁Rural 50
▁capabilities 50
▁compensat 50
▁counsel 50
▁cruise 50
▁harbour 50
▁interfere 50
▁pace 50
▁pedestrian 50
▁premise 50
▁relax 50
▁slogan 50
▁sustainabl 50
▁violation 50
PR 49
function 49
hav 49
▁Bailey 49
▁CNN 49
▁Colonial 49
▁Commodore 49
▁Complex 49
▁HIV 49
▁Joshua 49
▁Legion 49
▁Manufactur 49
▁Mumbai 49
▁Price 49
▁Tournament 49
▁Tribune 49
▁airplane 49
▁confidence 49
▁deteriorat 49
▁journalism 49
▁judgment 49
▁medication 49
▁pollution 49
▁receptor 49
▁triumph 49
collegiate 48
president 48
▁Cotton 48
▁Criminal 48
▁Kerala 48
▁Paralympic 48
▁donation 48
▁impressed 48
▁maxim 48
▁opportunities 48
▁revenge 48
▁vicinity 48
▁worse 48
responsibilities 47
▁2014 47
▁Albanian 47
▁Boulevard 47
▁Diploma 47
▁Halifax 47
▁Infantry 47
▁accusation 47
▁attorney 47
▁bench 47
▁chase 47
▁clerk 47
▁drill 47
▁fake 47
▁fixture 47
▁instruct 47
▁patrol 47
▁reconstruction 47
2,1 46
eath 46
Ó 46
▁Gujarat 46
▁Provincial 46
▁Terminal 46
▁Uganda 46
▁assignment 46
▁bold 46
▁celebrities 46
▁consecrat 46
▁creek 46
▁criticis 46
▁motif 46
▁roster 46
▁scope 46
aternity 45
olate 45
· 45
Æ 45
ør 45
▁Arlington 45
▁Coalition 45
▁Faculty 45
▁Sheikh 45
▁accurac 45
▁auction 45
▁certificate 45
▁devotion 45
▁dorsal 45
▁http 45
▁punch 45
▁remind 45
▁reopen 45
▁snail 45
▁vacant 45
ñ 44
▁Ambassador 44
▁Clinic 44
▁Engineer 44
▁Joint 44
▁MLB 44
▁Providence 44
▁Reynolds 44
▁aggregate 44
▁ambush 44
▁batterie 44
▁custod 44
▁enacted 44
▁gambl 44
▁garrison 44
▁intersect 44
▁pottery 44
▁rejoin 44
▁scout 44
▁trench 44
▁vault 44
<WORDRANKRATIO_0.45> 43
▁AIDS 43
▁Emergency 43
▁Mohammad 43
▁accumulate 43
▁blast 43
▁bout 43
▁embrac 43
▁immigration 43
▁lobby 43
▁prevail 43
▁scenario 43
▁statute 43
# 42
▁Amendment 42
▁Belgrade 42
▁Griffith 42
▁Henderson 42
▁Lebanese 42
▁Legislativ 42
▁advanc 42
▁bachelor 42
▁cognitive 42
▁consciousness 42
▁deployed 42
▁drunk 42
▁integration 42
▁militia 42
▁racis 42
▁subscrib 42
▁thrust 42
▁trauma 42
▁trustee 42
LL 41
number 41
▁00 41
▁Chair 41
▁Elementary 41
▁Maharashtra 41
▁PhD 41
▁academy 41
▁congress 41
▁corrupt 41
▁gastropod 41
▁kids 41
▁mystery 41
▁practic 41
▁relay 41
▁swept 41
IL 40
methyl 40
š 40
▁Architect 40
▁Lodge 40
▁María 40
▁Rebecca 40
▁Representative 40
▁alumni 40
▁clinic 40
▁memories 40
▁overcome 40
▁pledg 40
▁satisfy 40
▁surgical 40
<DEPENDENCYTREEDEPTHRATIO_1.05> 39
▁2018 39
▁Academic 39
▁Course 39
▁Diocese 39
▁Recreation 39
▁Safety 39
▁behaviour 39
▁bike 39
▁capability 39
▁plaque 39
▁pneumonia 39
▁streak 39
economic 38
fighter 38
ù 38
û 38
▁Aviation 38
▁Brewer 38
▁Credit 38
▁assess 38
▁auxiliar 38
▁ballot 38
▁curriculum 38
▁fiscal 38
▁hik 38
▁Appeal 37
▁Learning 37
▁Martín 37
▁Progressive 37
▁boyfriend 37
▁civic 37
▁contrar 37
▁galleries 37
▁hurt 37
▁neglect 37
▁pretend 37
▁stuck 37
▁unanimous 37
cultural 36
terrorism 36
▁Madonna 36
▁Raiders 36
▁availability 36
▁gallery 36
▁genuine 36
▁offense 36
▁pistol 36
▁preliminary 36
▁showcase 36
▁stint 36
▁testimon 36
▁touchdown 36
; 35
▁Hispanic 35
▁analyst 35
▁boost 35
▁breach 35
▁brigade 35
▁classroom 35
▁guidance 35
▁issu 35
▁ordain 35
▁steady 35
uditorium 34
▁Account 34
▁Afghan 34
▁Shiva 34
▁Volunteer 34
▁amendment 34
▁corridor 34
▁innocent 34
▁makeup 34
▁necessit 34
▁renovat 34
▁strategies 34
▁subordinate 34
dhya 33
graduate 33
▁Distinguish 33
▁Legislature 33
▁ammunition 33
▁escort 33
▁segregat 33
▁swimmer 33
activat 32
llocated 32
prehensi 32
▁2016 32
▁ESPN 32
▁NSW 32
▁assessment 32
▁brutal 32
▁conviction 32
▁juvenile 32
▁migrant 32
▁runway 32
▁salary 32
<WORDRANKRATIO_1.9> 31
CR 31
▁2015 31
▁LGBT 31
▁Sergeant 31
▁Teacher 31
▁Twitter 31
▁capita 31
▁colonel 31
▁delegation 31
▁honest 31
▁householder 31
▁regulator 31
▁sprint 31
▁tackle 31
<WORDRANKRATIO_1.95> 30
FM 30
designat 30
Ç 30
▁Latino 30
▁Summit 30
▁audit 30
▁brilliant 30
▁dwelling 30
▁innings 30
▁semifinal 30
Ü 29
▁2017 29
▁Headquarters 29
▁Tunnel 29
▁discrimination 29
▁literac 29
▁refurbish 29
▁seminar 29
▁wreck 29
▁Congregation 28
▁Krishna 28
▁Monastery 28
▁Seminary 28
▁allegations 28
▁artillery 28
▁cannon 28
▁charitabl 28
▁replied 28
▁surprising 28
▁vinyl 28
▁Android 27
▁Episcopal 27
▁Inspector 27
▁Squadron 27
▁Swift 27
▁favourite 27
▁landowner 27
▁lunch 27
▁renovation 27
▁Battalion 26
▁Revival 26
▁UCLA 26
▁bankruptcy 26
▁wingspan 26
00,000 25
▁Counsel 25
▁Insurance 25
▁facade 25
▁ramp 25
▁wagon 25
È 24
▁Industries 24
▁Marathon 24
▁complaint 24
▁deployment 24
▁fundrais 24
▁inspection 24
▁mollusk 24
▁mortar 24
▁pension 24
▁portfolio 24
▁pretty 24
▁reissu 24
Þ 23
▁CDP 23
▁cancelled 23
▁fractur 23
▁spotted 23
▁warehouse 23
district 22
± 22
▁Agricultural 22
▁Graduate 22
▁Investment 22
▁Yugoslav 22
▁Zhang 22
partisan 21
▁Quinn 21
▁Rifle 21
▁Sheriff 21
▁Telugu 21
▁sank 21
▁squadron 21
> 20
œ 20
▁armour 20
▁electorate 20
▁rebound 20
▁Kumar 19
▁rehabilitat 19
▁volleyball 19
▁Chennai 18
▁Facebook 18
▁cruiser 18
+ 17
õ 17
▁Gmin 17
▁reconnaissance 17
▁Cavalry 16
▁neighbourhood 16
Ì 15
▁accredited 15
▁convoy 15
▁freestyle 15
▁torpedo 15
▁waiv 15
= 14
▁Romaniz 14
▁lodge 14
@ 13
▁Vijay 13
▁congressional 12
commissioned 11
ÿ 11
<WORDRANKRATIO_0.4> 10
À 10
Í 10
Ò 10
† 10
▁cottage 10
▁wicket 10
▁• 10
<DEPENDENCYTREEDEPTHRATIO_1.9> 9
ž 9
! 8
 8
Ž 8
Ireland 7
▁Artillery 7
Ô 6
μ 6
§ 5
åå 5
¥ 4
Óð 4
þ 4
ē 4
́ 4
▁RBI 4
< 3
<WORDRANKRATIO_0.35> 3
<WORDRANKRATIO_0.3> 3
[ 3
÷ 3
úð 3
„ 3
▁didn 3
▁turret 3
ÇÃ 2
Š 2
ʻ 2
▁codice 2
** 1
\*\* 1
] 1
© 1
Æþ 1
ā 1
’ 1
− 1
